{
  "version": "1.0",
  "truncation": null,
  "padding": null,
  "added_tokens": [
    {
      "id": 0,
      "content": "[UNK]",
      "single_word": false,
      "lstrip": false,
      "rstrip": false,
      "normalized": false,
      "special": true
    },
    {
      "id": 1,
      "content": "[EOS]",
      "single_word": false,
      "lstrip": false,
      "rstrip": false,
      "normalized": false,
      "special": true
    },
    {
      "id": 2,
      "content": "[BOS]",
      "single_word": false,
      "lstrip": false,
      "rstrip": false,
      "normalized": false,
      "special": true
    },
    {
      "id": 3,
      "content": "[PAD]",
      "single_word": false,
      "lstrip": false,
      "rstrip": false,
      "normalized": false,
      "special": true
    }
  ],
  "normalizer": {
    "type": "Sequence",
    "normalizers": [
      {
        "type": "NFC"
      },
      {
        "type": "StripAccents"
      },
      {
        "type": "Lowercase"
      }
    ]
  },
  "pre_tokenizer": {
    "type": "Sequence",
    "pretokenizers": [
      {
        "type": "Split",
        "pattern": {
          "Regex": "\\s+"
        },
        "behavior": "MergedWithNext",
        "invert": false
      },
      {
        "type": "Digits",
        "individual_digits": true
      }
    ]
  },
  "post_processor": null,
  "decoder": null,
  "model": {
    "type": "BPE",
    "dropout": null,
    "unk_token": "[UNK]",
    "continuing_subword_prefix": null,
    "end_of_word_suffix": null,
    "fuse_unk": false,
    "byte_fallback": false,
    "ignore_merges": false,
    "vocab": {
      "[UNK]": 0,
      "[EOS]": 1,
      "[BOS]": 2,
      "[PAD]": 3,
      "\u0013": 4,
      "\u0014": 5,
      "\u0018": 6,
      "\u0019": 7,
      "\u001c": 8,
      "\u001d": 9,
      "\u001f": 10,
      " ": 11,
      "!": 12,
      "#": 13,
      "$": 14,
      "%": 15,
      "&": 16,
      "'": 17,
      "(": 18,
      ")": 19,
      "*": 20,
      "+": 21,
      ",": 22,
      "-": 23,
      ".": 24,
      "/": 25,
      "0": 26,
      "1": 27,
      "2": 28,
      "3": 29,
      "4": 30,
      "5": 31,
      "6": 32,
      "7": 33,
      "8": 34,
      "9": 35,
      ":": 36,
      ";": 37,
      "<": 38,
      "=": 39,
      ">": 40,
      "?": 41,
      "@": 42,
      "[": 43,
      "\\": 44,
      "]": 45,
      "^": 46,
      "_": 47,
      "`": 48,
      "a": 49,
      "b": 50,
      "c": 51,
      "d": 52,
      "e": 53,
      "f": 54,
      "g": 55,
      "h": 56,
      "i": 57,
      "j": 58,
      "k": 59,
      "l": 60,
      "m": 61,
      "n": 62,
      "o": 63,
      "p": 64,
      "q": 65,
      "r": 66,
      "s": 67,
      "t": 68,
      "u": 69,
      "v": 70,
      "w": 71,
      "x": 72,
      "y": 73,
      "z": 74,
      "{": 75,
      "|": 76,
      "}": 77,
      "~": 78,
      "": 79,
      " t": 80,
      "he": 81,
      " a": 82,
      " .": 83,
      "in": 84,
      " s": 85,
      " w": 86,
      " ,": 87,
      " the": 88,
      "re": 89,
      "ou": 90,
      " h": 91,
      "ed": 92,
      " b": 93,
      " o": 94,
      " m": 95,
      "nd": 96,
      " i": 97,
      "ing": 98,
      " c": 99,
      " '": 100,
      " f": 101,
      "er": 102,
      " to": 103,
      "at": 104,
      " he": 105,
      " d": 106,
      " l": 107,
      " n": 108,
      "is": 109,
      "en": 110,
      "as": 111,
      " th": 112,
      "ll": 113,
      " and": 114,
      "on": 115,
      "an": 116,
      " p": 117,
      "or": 118,
      "ar": 119,
      "it": 120,
      " g": 121,
      "es": 122,
      " of": 123,
      " in": 124,
      "``": 125,
      " ''": 126,
      " y": 127,
      "om": 128,
      " ha": 129,
      "ow": 130,
      "id": 131,
      " be": 132,
      " you": 133,
      " e": 134,
      " was": 135,
      "le": 136,
      "ot": 137,
      "ld": 138,
      " her": 139,
      "ac": 140,
      "gh": 141,
      "ve": 142,
      "st": 143,
      " on": 144,
      "et": 145,
      " st": 146,
      "im": 147,
      "ly": 148,
      " it": 149,
      "ay": 150,
      " his": 151,
      " that": 152,
      "ic": 153,
      " u": 154,
      "ut": 155,
      " re": 156,
      " r": 157,
      "ad": 158,
      "al": 159,
      "se": 160,
      " k": 161,
      "ver": 162,
      " me": 163,
      "out": 164,
      " ?": 165,
      " wh": 166,
      "the": 167,
      "oo": 168,
      " we": 169,
      " as": 170,
      "ght": 171,
      " my": 172,
      "ould": 173,
      "ith": 174,
      " she": 175,
      "ir": 176,
      " for": 177,
      "ent": 178,
      "'t": 179,
      " with": 180,
      " n't": 181,
      "ke": 182,
      " 's": 183,
      " had": 184,
      " do": 185,
      "am": 186,
      " an": 187,
      " li": 188,
      " at": 189,
      "ur": 190,
      " sh": 191,
      "ion": 192,
      "all": 193,
      " j": 194,
      " him": 195,
      "ee": 196,
      " fr": 197,
      " sa": 198,
      "ight": 199,
      "ked": 200,
      "ch": 201,
      "red": 202,
      "ro": 203,
      "pp": 204,
      "ack": 205,
      " not": 206,
      "ain": 207,
      "ill": 208,
      " ne": 209,
      " but": 210,
      "th": 211,
      "she": 212,
      "ant": 213,
      "ce": 214,
      "her": 215,
      "ter": 216,
      "il": 217,
      "and": 218,
      " kn": 219,
      "ore": 220,
      " out": 221,
      " so": 222,
      " up": 223,
      " is": 224,
      "ust": 225,
      "rou": 226,
      "ri": 227,
      "ome": 228,
      " have": 229,
      " said": 230,
      "ard": 231,
      "ec": 232,
      "un": 233,
      "one": 234,
      " from": 235,
      "king": 236,
      " what": 237,
      " ab": 238,
      "to": 239,
      " go": 240,
      " did": 241,
      "ie": 242,
      " le": 243,
      "ra": 244,
      " ch": 245,
      "ind": 246,
      " could": 247,
      " whe": 248,
      " no": 249,
      " this": 250,
      " back": 251,
      "ge": 252,
      " were": 253,
      " all": 254,
      " loo": 255,
      " al": 256,
      " su": 257,
      " would": 258,
      "ted": 259,
      " v": 260,
      "ess": 261,
      "own": 262,
      "el": 263,
      "nt": 264,
      "us": 265,
      " like": 266,
      "lo": 267,
      " they": 268,
      "ood": 269,
      "qu": 270,
      "ab": 271,
      "ss": 272,
      " sp": 273,
      "hed": 274,
      " one": 275,
      " into": 276,
      " 'd": 277,
      "ell": 278,
      "ide": 279,
      " con": 280,
      "if": 281,
      "au": 282,
      "our": 283,
      "ry": 284,
      "ast": 285,
      " ag": 286,
      " know": 287,
      " wor": 288,
      "ers": 289,
      "hing": 290,
      "ace": 291,
      " about": 292,
      " ex": 293,
      "ally": 294,
      "ake": 295,
      "ck": 296,
      " hand": 297,
      "um": 298,
      " ro": 299,
      " just": 300,
      " if": 301,
      " them": 302,
      "way": 303,
      " see": 304,
      "ul": 305,
      " want": 306,
      " over": 307,
      "ong": 308,
      "op": 309,
      " your": 310,
      "very": 311,
      "ate": 312,
      " any": 313,
      "art": 314,
      " or": 315,
      " been": 316,
      "ven": 317,
      " ey": 318,
      " are": 319,
      "est": 320,
      "we": 321,
      "ap": 322,
      " de": 323,
      " sm": 324,
      " there": 325,
      " tim": 326,
      " get": 327,
      "lf": 328,
      " down": 329,
      " bl": 330,
      "are": 331,
      " when": 332,
      " pl": 333,
      "ist": 334,
      "ig": 335,
      " lo": 336,
      "ame": 337,
      " too": 338,
      " se": 339,
      "urn": 340,
      " bo": 341,
      " co": 342,
      " again": 343,
      " mo": 344,
      "ous": 345,
      "round": 346,
      "ice": 347,
      "ation": 348,
      " com": 349,
      " then": 350,
      " !": 351,
      " off": 352,
      " some": 353,
      "ag": 354,
      "ink": 355,
      " man": 356,
      "ive": 357,
      " br": 358,
      " time": 359,
      " ar": 360,
      " eyes": 361,
      " who": 362,
      "ew": 363,
      " thou": 364,
      " po": 365,
      " head": 366,
      "ting": 367,
      " us": 368,
      " by": 369,
      "ine": 370,
      "ull": 371,
      "ick": 372,
      " qu": 373,
      " more": 374,
      " 'm": 375,
      "ak": 376,
      "ther": 377,
      "pped": 378,
      "other": 379,
      "ound": 380,
      " can": 381,
      " cl": 382,
      "te": 383,
      " ac": 384,
      " sc": 385,
      " sl": 386,
      " tr": 387,
      " now": 388,
      "led": 389,
      " gr": 390,
      "self": 391,
      "ved": 392,
      "fore": 393,
      " way": 394,
      "ile": 395,
      " tw": 396,
      "ure": 397,
      "but": 398,
      "ire": 399,
      " their": 400,
      " en": 401,
      " un": 402,
      " than": 403,
      " how": 404,
      "dd": 405,
      " around": 406,
      "wh": 407,
      "you": 408,
      "..": 409,
      "ass": 410,
      "ort": 411,
      "reat": 412,
      " ``": 413,
      "ear": 414,
      " say": 415,
      " going": 416,
      " ...": 417,
      "ving": 418,
      " before": 419,
      "fe": 420,
      " other": 421,
      "nder": 422,
      " will": 423,
      "omet": 424,
      " pre": 425,
      " here": 426,
      "ade": 427,
      " pro": 428,
      " even": 429,
      "rough": 430,
      " right": 431,
      " 're": 432,
      " think": 433,
      " fl": 434,
      "ep": 435,
      " through": 436,
      " need": 437,
      " turn": 438,
      "ip": 439,
      "em": 440,
      " looked": 441,
      " im": 442,
      "ft": 443,
      " every": 444,
      "ff": 445,
      "tle": 446,
      "ect": 447,
      " only": 448,
      " thought": 449,
      "fter": 450,
      "ward": 451,
      "iss": 452,
      "be": 453,
      " should": 454,
      " thing": 455,
      " away": 456,
      "thing": 457,
      " bec": 458,
      " somet": 459,
      "ling": 460,
      "ite": 461,
      " look": 462,
      " gl": 463,
      "eep": 464,
      " gu": 465,
      " pr": 466,
      " face": 467,
      " door": 468,
      "ont": 469,
      "act": 470,
      " mu": 471,
      "ies": 472,
      "ity": 473,
      "ang": 474,
      "ause": 475,
      " still": 476,
      "ave": 477,
      "iz": 478,
      " exp": 479,
      "dy": 480,
      "ol": 481,
      "ened": 482,
      " long": 483,
      " let": 484,
      "ach": 485,
      "ared": 486,
      " clo": 487,
      "ble": 488,
      " fee": 489,
      " wat": 490,
      " op": 491,
      " 'll": 492,
      "able": 493,
      " am": 494,
      " never": 495,
      " lit": 496,
      " got": 497,
      "ct": 498,
      " bet": 499,
      "ark": 500,
      "ue": 501,
      " good": 502,
      " che": 503,
      "ated": 504,
      "they": 505,
      "ance": 506,
      "wn": 507,
      "ered": 508,
      "med": 509,
      " asked": 510,
      "ich": 511,
      "no": 512,
      "ough": 513,
      "ched": 514,
      "whe": 515,
      " made": 516,
      "ree": 517,
      "ious": 518,
      " much": 519,
      " arm": 520,
      " fo": 521,
      " ho": 522,
      "ment": 523,
      "aking": 524,
      "age": 525,
      " knew": 526,
      " room": 527,
      "ath": 528,
      "ty": 529,
      " wa": 530,
      " car": 531,
      "ru": 532,
      " two": 533,
      " where": 534,
      "his": 535,
      " dis": 536,
      "ning": 537,
      "ady": 538,
      " fir": 539,
      "side": 540,
      " little": 541,
      "so": 542,
      " rem": 543,
      " tell": 544,
      " under": 545,
      "ond": 546,
      "ather": 547,
      " day": 548,
      " after": 549,
      " our": 550,
      "sh": 551,
      " make": 552,
      " mom": 553,
      "gg": 554,
      "elt": 555,
      "sp": 556,
      " pe": 557,
      "de": 558,
      " happ": 559,
      "ress": 560,
      "ried": 561,
      "ks": 562,
      "ber": 563,
      " take": 564,
      " wal": 565,
      " te": 566,
      "my": 567,
      " because": 568,
      " call": 569,
      "air": 570,
      "ah": 571,
      "ase": 572,
      " well": 573,
      "oice": 574,
      " cont": 575,
      "ves": 576,
      " come": 577,
      " felt": 578,
      "ose": 579,
      " first": 580,
      "ied": 581,
      " 've": 582,
      " hands": 583,
      "ps": 584,
      " wanted": 585,
      " took": 586,
      "ple": 587,
      " ;": 588,
      " turned": 589,
      " pull": 590,
      " tal": 591,
      " em": 592,
      " sw": 593,
      " ca": 594,
      "that": 595,
      "ans": 596,
      " hel": 597,
      " jo": 598,
      "row": 599,
      "what": 600,
      "pt": 601,
      " sure": 602,
      "oth": 603,
      " night": 604,
      "ily": 605,
      "ild": 606,
      "sed": 607,
      "ia": 608,
      " sk": 609,
      "pl": 610,
      " really": 611,
      " app": 612,
      "ence": 613,
      "ne": 614,
      "ook": 615,
      " voice": 616,
      " against": 617,
      "there": 618,
      " try": 619,
      "uck": 620,
      " star": 621,
      " sec": 622,
      " why": 623,
      " has": 624,
      "ds": 625,
      " sur": 626,
      " des": 627,
      "anc": 628,
      "get": 629,
      " el": 630,
      "ople": 631,
      "per": 632,
      " left": 633,
      "bb": 634,
      " told": 635,
      " hard": 636,
      " real": 637,
      " came": 638,
      " feel": 639,
      "av": 640,
      " cou": 641,
      "ise": 642,
      " bel": 643,
      "ish": 644,
      "ross": 645,
      " side": 646,
      " part": 647,
      " beh": 648,
      "mo": 649,
      " put": 650,
      " body": 651,
      " very": 652,
      " per": 653,
      " life": 654,
      " -": 655,
      " last": 656,
      "az": 657,
      " wom": 658,
      " few": 659,
      " ad": 660,
      " wo": 661,
      "ful": 662,
      "ned": 663,
      " people": 664,
      " mar": 665,
      " help": 666,
      " find": 667,
      "ren": 668,
      "ears": 669,
      " fe": 670,
      " moment": 671,
      "hes": 672,
      "for": 673,
      " str": 674,
      "les": 675,
      " anything": 676,
      " ear": 677,
      " breat": 678,
      " its": 679,
      " own": 680,
      " which": 681,
      "xt": 682,
      " wait": 683,
      " new": 684,
      "ens": 685,
      "ions": 686,
      " another": 687,
      " fin": 688,
      " went": 689,
      " toward": 690,
      " war": 691,
      " being": 692,
      " enough": 693,
      "ouse": 694,
      " ph": 695,
      " behind": 696,
      " while": 697,
      " might": 698,
      " keep": 699,
      " cr": 700,
      "owed": 701,
      "igh": 702,
      " bed": 703,
      " bu": 704,
      " saw": 705,
      " light": 706,
      " lau": 707,
      " wr": 708,
      " beg": 709,
      " may": 710,
      " unt": 711,
      " does": 712,
      "ways": 713,
      "outh": 714,
      " mat": 715,
      " sn": 716,
      " dark": 717,
      " gir": 718,
      " hair": 719,
      " sound": 720,
      "ail": 721,
      " mind": 722,
      "ching": 723,
      " love": 724,
      " things": 725,
      "ince": 726,
      "ys": 727,
      " ever": 728,
      "ness": 729,
      "int": 730,
      " until": 731,
      " cle": 732,
      " dr": 733,
      " fing": 734,
      " open": 735,
      " nothing": 736,
      " old": 737,
      " end": 738,
      " stu": 739,
      "ream": 740,
      "when": 741,
      " dec": 742,
      " ent": 743,
      "ian": 744,
      " set": 745,
      "ons": 746,
      "ord": 747,
      "amp": 748,
      "uc": 749,
      " care": 750,
      "ner": 751,
      "then": 752,
      "co": 753,
      "iend": 754,
      "ool": 755,
      "dded": 756,
      " friend": 757,
      " girl": 758,
      " place": 759,
      " though": 760,
      " those": 761,
      "ower": 762,
      " att": 763,
      " always": 764,
      " mouth": 765,
      " house": 766,
      "how": 767,
      " sat": 768,
      " found": 769,
      " front": 770,
      "most": 771,
      " next": 772,
      "not": 773,
      "aw": 774,
      " min": 775,
      " smil": 776,
      " :": 777,
      " home": 778,
      "this": 779,
      " kill": 780,
      "li": 781,
      "rew": 782,
      "ating": 783,
      "ary": 784,
      " cur": 785,
      " ste": 786,
      " run": 787,
      " looking": 788,
      " inside": 789,
      "ank": 790,
      " hold": 791,
      " both": 792,
      " sil": 793,
      " hu": 794,
      "ory": 795,
      " heart": 796,
      " sit": 797,
      " work": 798,
      "less": 799,
      "ually": 800,
      " most": 801,
      " himself": 802,
      " same": 803,
      "**": 804,
      " rest": 805,
      " act": 806,
      "os": 807,
      " imp": 808,
      "ange": 809,
      " far": 810,
      " bit": 811,
      " woman": 812,
      " ass": 813,
      " small": 814,
      "ung": 815,
      " heard": 816,
      " pulled": 817,
      " sho": 818,
      " arms": 819,
      "ween": 820,
      " stand": 821,
      " rel": 822,
      " trying": 823,
      " flo": 824,
      "ised": 825,
      "ert": 826,
      " blood": 827,
      "ret": 828,
      " cour": 829,
      " better": 830,
      " yes": 831,
      " seemed": 832,
      " wind": 833,
      " hop": 834,
      " ret": 835,
      " gra": 836,
      " ser": 837,
      " kiss": 838,
      "pping": 839,
      " between": 840,
      " smile": 841,
      " father": 842,
      " cor": 843,
      " ans": 844,
      " mean": 845,
      " without": 846,
      "ten": 847,
      " once": 848,
      "ng": 849,
      " mother": 850,
      "ready": 851,
      " gi": 852,
      "ale": 853,
      "ably": 854,
      " dra": 855,
      " hear": 856,
      " deep": 857,
      "ped": 858,
      "used": 859,
      " sto": 860,
      "ial": 861,
      " myself": 862,
      "aught": 863,
      " across": 864,
      " second": 865,
      " give": 866,
      " spe": 867,
      " black": 868,
      " fam": 869,
      " started": 870,
      " pass": 871,
      " gave": 872,
      "cked": 873,
      "ict": 874,
      " pu": 875,
      " someone": 876,
      " breath": 877,
      " dri": 878,
      " hur": 879,
      "kay": 880,
      " each": 881,
      "ached": 882,
      " already": 883,
      "pr": 884,
      " stood": 885,
      "ix": 886,
      " years": 887,
      " ple": 888,
      " bre": 889,
      "shed": 890,
      " sle": 891,
      " quick": 892,
      " must": 893,
      " else": 894,
      " pain": 895,
      " belie": 896,
      " done": 897,
      "ors": 898,
      " kind": 899,
      "do": 900,
      " stop": 901,
      "ible": 902,
      "gether": 903,
      " wall": 904,
      " air": 905,
      " almost": 906,
      "its": 907,
      " stay": 908,
      " doing": 909,
      "ater": 910,
      " men": 911,
      "ph": 912,
      " tried": 913,
      " inst": 914,
      " dro": 915,
      " lips": 916,
      "ash": 917,
      " walked": 918,
      " world": 919,
      " ru": 920,
      " foll": 921,
      "bo": 922,
      " words": 923,
      "ane": 924,
      "ever": 925,
      " close": 926,
      " comp": 927,
      " tou": 928,
      "ized": 929,
      " hum": 930,
      " nodded": 931,
      " since": 932,
      "iv": 933,
      " feet": 934,
      " remem": 935,
      " mor": 936,
      "umb": 937,
      " tra": 938,
      " three": 939,
      " sig": 940,
      " big": 941,
      "iet": 942,
      " swe": 943,
      " bar": 944,
      " minut": 945,
      "ured": 946,
      " together": 947,
      " held": 948,
      "rent": 949,
      " ob": 950,
      " seen": 951,
      " didnt": 952,
      "pe": 953,
      "ully": 954,
      " start": 955,
      " met": 956,
      "ger": 957,
      " near": 958,
      " quest": 959,
      "gs": 960,
      "ained": 961,
      " lot": 962,
      "owing": 963,
      "day": 964,
      "ason": 965,
      " dif": 966,
      "irt": 967,
      " mon": 968,
      " underst": 969,
      " supp": 970,
      "icked": 971,
      "inking": 972,
      "cl": 973,
      " whis": 974,
      "ier": 975,
      " miss": 976,
      "where": 977,
      " pers": 978,
      " dont": 979,
      "ced": 980,
      " many": 981,
      "ud": 982,
      "akes": 983,
      "ib": 984,
      " ed": 985,
      "ently": 986,
      " slow": 987,
      " play": 988,
      " says": 989,
      " feeling": 990,
      "ser": 991,
      " water": 992,
      " smiled": 993,
      " move": 994,
      " floor": 995,
      "ither": 996,
      "gged": 997,
      " talk": 998,
      " hell": 999,
      " bad": 1000,
      " ev": 1001,
      " herself": 1002,
      "rie": 1003,
      "ows": 1004,
      " table": 1005,
      " gone": 1006,
      " fingers": 1007,
      " leave": 1008,
      " gre": 1009,
      "ention": 1010,
      " began": 1011,
      " chest": 1012,
      " needed": 1013,
      "by": 1014,
      "ished": 1015,
      "aced": 1016,
      " ra": 1017,
      " past": 1018,
      "ying": 1019,
      " eas": 1020,
      "ected": 1021,
      " sim": 1022,
      " z": 1023,
      " step": 1024,
      "ings": 1025,
      "orm": 1026,
      " dist": 1027,
      " shook": 1028,
      " name": 1029,
      "ense": 1030,
      "ax": 1031,
      "eah": 1032,
      " okay": 1033,
      "der": 1034,
      " hour": 1035,
      "ny": 1036,
      "ately": 1037,
      "vers": 1038,
      " acc": 1039,
      " great": 1040,
      " squ": 1041,
      "wer": 1042,
      " these": 1043,
      " conf": 1044,
      "now": 1045,
      " course": 1046,
      "dden": 1047,
      "bably": 1048,
      "ush": 1049,
      " along": 1050,
      " sor": 1051,
      " maybe": 1052,
      " called": 1053,
      "up": 1054,
      " ide": 1055,
      " fore": 1056,
      " getting": 1057,
      "ical": 1058,
      " soft": 1059,
      "with": 1060,
      " also": 1061,
      " coming": 1062,
      "na": 1063,
      "ined": 1064,
      " fall": 1065,
      " bro": 1066,
      " child": 1067,
      " least": 1068,
      " int": 1069,
      "ipped": 1070,
      " half": 1071,
      "ms": 1072,
      " happened": 1073,
      " yet": 1074,
      " moved": 1075,
      "ek": 1076,
      " red": 1077,
      " dead": 1078,
      "aring": 1079,
      "aned": 1080,
      " inv": 1081,
      " aw": 1082,
      " best": 1083,
      " fre": 1084,
      " contin": 1085,
      " reached": 1086,
      " comm": 1087,
      " return": 1088,
      " tre": 1089,
      " such": 1090,
      " person": 1091,
      " poss": 1092,
      "just": 1093,
      " resp": 1094,
      " char": 1095,
      " high": 1096,
      " eye": 1097,
      " res": 1098,
      "bbed": 1099,
      "tered": 1100,
      " stopped": 1101,
      " phone": 1102,
      " soon": 1103,
      " gaz": 1104,
      "br": 1105,
      " believe": 1106,
      " skin": 1107,
      "eth": 1108,
      "ition": 1109,
      " tight": 1110,
      "che": 1111,
      " probably": 1112,
      " cra": 1113,
      "idd": 1114,
      " ter": 1115,
      "ged": 1116,
      " opened": 1117,
      "app": 1118,
      "ening": 1119,
      "ene": 1120,
      " fire": 1121,
      "ired": 1122,
      " pat": 1123,
      "jo": 1124,
      " bus": 1125,
      " ask": 1126,
      " used": 1127,
      " making": 1128,
      "ual": 1129,
      " meet": 1130,
      " family": 1131,
      " press": 1132,
      " later": 1133,
      "ister": 1134,
      "ton": 1135,
      " oh": 1136,
      " surpr": 1137,
      " boy": 1138,
      "iously": 1139,
      " idea": 1140,
      "head": 1141,
      "arent": 1142,
      "ided": 1143,
      " ran": 1144,
      "ept": 1145,
      "ering": 1146,
      " dam": 1147,
      " inter": 1148,
      " sleep": 1149,
      " hor": 1150,
      " par": 1151,
      "fully": 1152,
      "room": 1153,
      " anyone": 1154,
      " dire": 1155,
      " plan": 1156,
      " shoulder": 1157,
      " white": 1158,
      "ction": 1159,
      " forward": 1160,
      "aut": 1161,
      "gn": 1162,
      " ground": 1163,
      " brother": 1164,
      " diffe": 1165,
      " dem": 1166,
      "cept": 1167,
      " ap": 1168,
      " neck": 1169,
      "ins": 1170,
      " hot": 1171,
      "after": 1172,
      " morning": 1173,
      " fact": 1174,
      " stra": 1175,
      "ts": 1176,
      " kept": 1177,
      "man": 1178,
      "may": 1179,
      " point": 1180,
      "anced": 1181,
      " es": 1182,
      "rest": 1183,
      " list": 1184,
      " sorry": 1185,
      " matter": 1186,
      " mr": 1187,
      " fight": 1188,
      " sudden": 1189,
      "aid": 1190,
      "well": 1191,
      " power": 1192,
      " read": 1193,
      " lar": 1194,
      " top": 1195,
      " comple": 1196,
      " days": 1197,
      " cut": 1198,
      " young": 1199,
      " remember": 1200,
      " quiet": 1201,
      "ued": 1202,
      "ents": 1203,
      " repl": 1204,
      "ertain": 1205,
      " cat": 1206,
      "aken": 1207,
      " god": 1208,
      " quickly": 1209,
      " able": 1210,
      "ize": 1211,
      " vis": 1212,
      "why": 1213,
      " prot": 1214,
      " finally": 1215,
      " guy": 1216,
      " hit": 1217,
      " taking": 1218,
      "oke": 1219,
      " onto": 1220,
      "iness": 1221,
      " rep": 1222,
      " roll": 1223,
      " clear": 1224,
      " wrong": 1225,
      " reg": 1226,
      " use": 1227,
      " closed": 1228,
      " expl": 1229,
      "uth": 1230,
      " alone": 1231,
      " mag": 1232,
      " stared": 1233,
      " hurt": 1234,
      "ically": 1235,
      "ead": 1236,
      " answer": 1237,
      " full": 1238,
      " cap": 1239,
      " rec": 1240,
      " ready": 1241,
      " watched": 1242,
      " question": 1243,
      " fell": 1244,
      " laugh": 1245,
      "ife": 1246,
      " thinking": 1247,
      " thro": 1248,
      " talking": 1249,
      "io": 1250,
      "bl": 1251,
      " mine": 1252,
      " lea": 1253,
      "airs": 1254,
      " sun": 1255,
      " inc": 1256,
      " del": 1257,
      " dress": 1258,
      " sch": 1259,
      " har": 1260,
      "vel": 1261,
      " minutes": 1262,
      "maybe": 1263,
      " whisp": 1264,
      "any": 1265,
      "ghed": 1266,
      " dad": 1267,
      "ets": 1268,
      "aps": 1269,
      " det": 1270,
      "cc": 1271,
      " pol": 1272,
      "fort": 1273,
      " fig": 1274,
      " inte": 1275,
      " having": 1276,
      " coll": 1277,
      " beaut": 1278,
      " col": 1279,
      " ref": 1280,
      " bab": 1281,
      " tri": 1282,
      " slowly": 1283,
      " stre": 1284,
      "ount": 1285,
      " hall": 1286,
      " mem": 1287,
      " gaze": 1288,
      "oney": 1289,
      " wonder": 1290,
      "illed": 1291,
      " pur": 1292,
      " yeah": 1293,
      "oh": 1294,
      "ey": 1295,
      "ump": 1296,
      "night": 1297,
      "go": 1298,
      " cons": 1299,
      " pret": 1300,
      " reason": 1301,
      " lost": 1302,
      " bot": 1303,
      " cold": 1304,
      " glass": 1305,
      " word": 1306,
      " outside": 1307,
      " dou": 1308,
      "fect": 1309,
      " guess": 1310,
      " vamp": 1311,
      " low": 1312,
      " mus": 1313,
      "ations": 1314,
      " lif": 1315,
      " times": 1316,
      " fine": 1317,
      "ken": 1318,
      " whole": 1319,
      "ips": 1320,
      "cer": 1321,
      " either": 1322,
      " cal": 1323,
      " everyone": 1324,
      " caught": 1325,
      " kid": 1326,
      "ides": 1327,
      "vered": 1328,
      "ased": 1329,
      "inted": 1330,
      " jack": 1331,
      " walk": 1332,
      "apter": 1333,
      " bur": 1334,
      " land": 1335,
      " four": 1336,
      " lou": 1337,
      " prom": 1338,
      "-f": 1339,
      "mm": 1340,
      " actually": 1341,
      " laughed": 1342,
      " short": 1343,
      "ming": 1344,
      "ames": 1345,
      " pretty": 1346,
      "cus": 1347,
      " mur": 1348,
      "let": 1349,
      " ele": 1350,
      "ures": 1351,
      " grin": 1352,
      " exact": 1353,
      " break": 1354,
      " ago": 1355,
      " bes": 1356,
      " waiting": 1357,
      " friends": 1358,
      "cle": 1359,
      " standing": 1360,
      " taken": 1361,
      " complete": 1362,
      "eared": 1363,
      " build": 1364,
      "als": 1365,
      "uring": 1366,
      "ards": 1367,
      " shot": 1368,
      " hope": 1369,
      "rought": 1370,
      "ited": 1371,
      " free": 1372,
      "like": 1373,
      " legs": 1374,
      " death": 1375,
      "icul": 1376,
      " throat": 1377,
      "enty": 1378,
      "iver": 1379,
      "rol": 1380,
      " meant": 1381,
      " pres": 1382,
      "gr": 1383,
      " blue": 1384,
      " vampire": 1385,
      " fur": 1386,
      "ho": 1387,
      " glanced": 1388,
      " blo": 1389,
      " je": 1390,
      " scream": 1391,
      " others": 1392,
      " school": 1393,
      "even": 1394,
      "iding": 1395,
      " sy": 1396,
      " show": 1397,
      "fin": 1398,
      " lay": 1399,
      " window": 1400,
      " strong": 1401,
      "osed": 1402,
      " id": 1403,
      " brought": 1404,
      " bare": 1405,
      "eks": 1406,
      " looks": 1407,
      " warm": 1408,
      " imag": 1409,
      " certain": 1410,
      " kit": 1411,
      " straight": 1412,
      "unt": 1413,
      "ters": 1414,
      "acked": 1415,
      " ins": 1416,
      " fun": 1417,
      " human": 1418,
      "yes": 1419,
      " seat": 1420,
      "anger": 1421,
      " burn": 1422,
      " gun": 1423,
      "more": 1424,
      "ates": 1425,
      " sent": 1426,
      " stepped": 1427,
      "every": 1428,
      " mess": 1429,
      " bring": 1430,
      " less": 1431,
      " perfect": 1432,
      " large": 1433,
      " sign": 1434,
      "iful": 1435,
      "ime": 1436,
      "zy": 1437,
      " leaned": 1438,
      "ik": 1439,
      " touch": 1440,
      " dream": 1441,
      " sex": 1442,
      " sister": 1443,
      " sense": 1444,
      " foot": 1445,
      " adm": 1446,
      "ield": 1447,
      " realized": 1448,
      " ang": 1449,
      "land": 1450,
      " ind": 1451,
      " emp": 1452,
      " shut": 1453,
      " entire": 1454,
      " disapp": 1455,
      " suddenly": 1456,
      " ty": 1457,
      " exactly": 1458,
      "ove": 1459,
      "anged": 1460,
      " holding": 1461,
      "nding": 1462,
      "orn": 1463,
      " chair": 1464,
      "ression": 1465,
      " quite": 1466,
      " cry": 1467,
      " watch": 1468,
      " cross": 1469,
      "ird": 1470,
      " lead": 1471,
      "ze": 1472,
      " happy": 1473,
      " sub": 1474,
      " followed": 1475,
      "read": 1476,
      "some": 1477,
      "veral": 1478,
      "ants": 1479,
      " exc": 1480,
      "apped": 1481,
      " grabbed": 1482,
      " bat": 1483,
      "iced": 1484,
      " watching": 1485,
      " tom": 1486,
      "ison": 1487,
      " ten": 1488,
      "ape": 1489,
      " closer": 1490,
      "com": 1491,
      " job": 1492,
      "aster": 1493,
      " hours": 1494,
      " shru": 1495,
      "otion": 1496,
      " cent": 1497,
      "ub": 1498,
      " wood": 1499,
      "gan": 1500,
      " sitting": 1501,
      " replied": 1502,
      " running": 1503,
      " gen": 1504,
      "me": 1505,
      " er": 1506,
      "oun": 1507,
      " pushed": 1508,
      "though": 1509,
      " count": 1510,
      "aces": 1511,
      " line": 1512,
      "form": 1513,
      "aged": 1514,
      " longer": 1515,
      " clot": 1516,
      "sing": 1517,
      "chen": 1518,
      " deal": 1519,
      "nded": 1520,
      "ient": 1521,
      " fear": 1522,
      " thr": 1523,
      " chance": 1524,
      "aul": 1525,
      " saying": 1526,
      " appro": 1527,
      " true": 1528,
      " wra": 1529,
      "isted": 1530,
      "gy": 1531,
      " win": 1532,
      " na": 1533,
      " nice": 1534,
      " speak": 1535,
      "ina": 1536,
      " baby": 1537,
      "ma": 1538,
      "haps": 1539,
      " hes": 1540,
      " month": 1541,
      " hung": 1542,
      " stom": 1543,
      "ches": 1544,
      " )": 1545,
      " cir": 1546,
      " town": 1547,
      " heav": 1548,
      " lear": 1549,
      " five": 1550,
      " stru": 1551,
      "bed": 1552,
      " beside": 1553,
      " bag": 1554,
      "ster": 1555,
      "chapter": 1556,
      " slight": 1557,
      " safe": 1558,
      " eng": 1559,
      " yell": 1560,
      " apart": 1561,
      " proble": 1562,
      " interest": 1563,
      " change": 1564,
      " sing": 1565,
      " living": 1566,
      " please": 1567,
      " pap": 1568,
      " money": 1569,
      "ls": 1570,
      "ines": 1571,
      "ject": 1572,
      " control": 1573,
      " pri": 1574,
      " kitchen": 1575,
      "cent": 1576,
      " road": 1577,
      "ann": 1578,
      " tem": 1579,
      "cess": 1580,
      " pa": 1581,
      " fast": 1582,
      " din": 1583,
      "cy": 1584,
      "light": 1585,
      " smell": 1586,
      " dropped": 1587,
      " ve": 1588,
      " live": 1589,
      " trust": 1590,
      " case": 1591,
      " af": 1592,
      " wasnt": 1593,
      " parent": 1594,
      "ots": 1595,
      " couple": 1596,
      " several": 1597,
      " known": 1598,
      " pal": 1599,
      "antly": 1600,
      " sweet": 1601,
      "ars": 1602,
      " given": 1603,
      " shif": 1604,
      "ially": 1605,
      " office": 1606,
      " tonight": 1607,
      " loved": 1608,
      " shad": 1609,
      " shit": 1610,
      " decided": 1611,
      " moving": 1612,
      "iff": 1613,
      "rist": 1614,
      "ror": 1615,
      " reco": 1616,
      "ones": 1617,
      " six": 1618,
      " year": 1619,
      "sel": 1620,
      "cking": 1621,
      "een": 1622,
      " eff": 1623,
      "ought": 1624,
      " sky": 1625,
      " shirt": 1626,
      " form": 1627,
      " grand": 1628,
      " son": 1629,
      " business": 1630,
      " f**": 1631,
      " ill": 1632,
      "imes": 1633,
      " leaving": 1634,
      " ir": 1635,
      " today": 1636,
      " whatever": 1637,
      " bene": 1638,
      " city": 1639,
      "ility": 1640,
      " street": 1641,
      " mad": 1642,
      " esc": 1643,
      "ains": 1644,
      " above": 1645,
      "-s": 1646,
      "ashed": 1647,
      "body": 1648,
      " truth": 1649,
      " coun": 1650,
      "ising": 1651,
      "ident": 1652,
      " women": 1653,
      "ief": 1654,
      " rock": 1655,
      " add": 1656,
      " sort": 1657,
      " spec": 1658,
      " doub": 1659,
      "iny": 1660,
      "iew": 1661,
      " finger": 1662,
      " av": 1663,
      "umped": 1664,
      " ce": 1665,
      " creat": 1666,
      "ply": 1667,
      " spoke": 1668,
      " rose": 1669,
      " gri": 1670,
      "els": 1671,
      " passed": 1672,
      " ma": 1673,
      "aining": 1674,
      " stomach": 1675,
      " mil": 1676,
      "unch": 1677,
      "ley": 1678,
      "ien": 1679,
      " tor": 1680,
      " lifted": 1681,
      " book": 1682,
      "raid": 1683,
      "lly": 1684,
      " hon": 1685,
      " parents": 1686,
      " raised": 1687,
      "ging": 1688,
      "ience": 1689,
      " thank": 1690,
      "of": 1691,
      "lex": 1692,
      "ara": 1693,
      " working": 1694,
      "ky": 1695,
      " arri": 1696,
      " crow": 1697,
      " drink": 1698,
      " dev": 1699,
      " corner": 1700,
      " worry": 1701,
      "wor": 1702,
      "bec": 1703,
      " (": 1704,
      " green": 1705,
      " begin": 1706,
      " mut": 1707,
      " filled": 1708,
      "medi": 1709,
      "gth": 1710,
      "ndred": 1711,
      " trou": 1712,
      " gas": 1713,
      " pict": 1714,
      " bright": 1715,
      " sam": 1716,
      "fr": 1717,
      " supposed": 1718,
      " happen": 1719,
      " secret": 1720,
      " late": 1721,
      "tem": 1722,
      " pay": 1723,
      "acing": 1724,
      " cre": 1725,
      " killed": 1726,
      " edge": 1727,
      "ony": 1728,
      " tears": 1729,
      "ha": 1730,
      " guys": 1731,
      " nor": 1732,
      " ner": 1733,
      " frown": 1734,
      "come": 1735,
      " makes": 1736,
      "ushing": 1737,
      " staring": 1738,
      "ection": 1739,
      " picked": 1740,
      " food": 1741,
      "did": 1742,
      "ike": 1743,
      " mir": 1744,
      "right": 1745,
      " forg": 1746,
      " teeth": 1747,
      " building": 1748,
      " sighed": 1749,
      " king": 1750,
      " shar": 1751,
      " yourself": 1752,
      " rather": 1753,
      "ric": 1754,
      " obv": 1755,
      " die": 1756,
      " kno": 1757,
      " nat": 1758,
      "ign": 1759,
      " coff": 1760,
      " ext": 1761,
      "bs": 1762,
      " week": 1763,
      " walking": 1764,
      "vent": 1765,
      " tong": 1766,
      " nearly": 1767,
      " wond": 1768,
      "itch": 1769,
      " mist": 1770,
      " hang": 1771,
      " hundred": 1772,
      " wide": 1773,
      " instead": 1774,
      " pos": 1775,
      "ator": 1776,
      " pleas": 1777,
      " mr.": 1778,
      " towards": 1779,
      "tom": 1780,
      " guard": 1781,
      " grow": 1782,
      " sear": 1783,
      " damn": 1784,
      " shout": 1785,
      " noticed": 1786,
      " stuff": 1787,
      " immedi": 1788,
      " twenty": 1789,
      " possible": 1790,
      " girls": 1791,
      " silence": 1792,
      " seem": 1793,
      "wered": 1794,
      " box": 1795,
      " convers": 1796,
      " returned": 1797,
      " abs": 1798,
      " couldnt": 1799,
      " thoughts": 1800,
      "hn": 1801,
      "aim": 1802,
      " clothes": 1803,
      " afraid": 1804,
      "ute": 1805,
      " waited": 1806,
      "pted": 1807,
      "son": 1808,
      " danger": 1809,
      " sight": 1810,
      " loud": 1811,
      " gro": 1812,
      " capt": 1813,
      "yed": 1814,
      " susp": 1815,
      " gar": 1816,
      "use": 1817,
      " worked": 1818,
      "ees": 1819,
      " rolled": 1820,
      "ilt": 1821,
      " kissed": 1822,
      " grou": 1823,
      " sens": 1824,
      " enjo": 1825,
      "ists": 1826,
      " cant": 1827,
      " opp": 1828,
      " seeing": 1829,
      "somet": 1830,
      " drive": 1831,
      "irty": 1832,
      " upon": 1833,
      " eat": 1834,
      " stud": 1835,
      " easy": 1836,
      "umber": 1837,
      " become": 1838,
      " anyway": 1839,
      " shrugged": 1840,
      " story": 1841,
      "iddle": 1842,
      " giving": 1843,
      "ult": 1844,
      " pointed": 1845,
      " pressed": 1846,
      " dep": 1847,
      " thick": 1848,
      "ug": 1849,
      "ili": 1850,
      " hun": 1851,
      " gold": 1852,
      "ler": 1853,
      "ship": 1854,
      " import": 1855,
      " luc": 1856,
      " stro": 1857,
      "set": 1858,
      "su": 1859,
      "zz": 1860,
      "aled": 1861,
      " knowing": 1862,
      " spot": 1863,
      " desk": 1864,
      " within": 1865,
      "-and": 1866,
      " occ": 1867,
      " *": 1868,
      "ments": 1869,
      "orrow": 1870,
      " tongue": 1871,
      " pet": 1872,
      " telling": 1873,
      " barely": 1874,
      " wondered": 1875,
      " clim": 1876,
      "rief": 1877,
      " direct": 1878,
      " cheek": 1879,
      " leg": 1880,
      " beneath": 1881,
      " answered": 1882,
      " figure": 1883,
      " minute": 1884,
      " dest": 1885,
      " slid": 1886,
      " order": 1887,
      " pock": 1888,
      " remind": 1889,
      " agre": 1890,
      " norm": 1891,
      " empty": 1892,
      "wo": 1893,
      " children": 1894,
      " coffee": 1895,
      " nar": 1896,
      "ex": 1897,
      "ider": 1898,
      "ities": 1899,
      " knows": 1900,
      " led": 1901,
      " conn": 1902,
      " problem": 1903,
      " wife": 1904,
      " pick": 1905,
      " sou": 1906,
      " smo": 1907,
      " ball": 1908,
      "unk": 1909,
      "vin": 1910,
      " cam": 1911,
      "icking": 1912,
      "amed": 1913,
      " jer": 1914,
      " middle": 1915,
      "bered": 1916,
      " mark": 1917,
      " sad": 1918,
      " strange": 1919,
      "umbled": 1920,
      "ances": 1921,
      " class": 1922,
      "ories": 1923,
      "iting": 1924,
      " appeared": 1925,
      " changed": 1926,
      "aded": 1927,
      "selves": 1928,
      " spr": 1929,
      " exper": 1930,
      "s.": 1931,
      " sal": 1932,
      "pid": 1933,
      "ices": 1934,
      " crowd": 1935,
      "att": 1936,
      " da": 1937,
      "mb": 1938,
      "oc": 1939,
      "sy": 1940,
      " heavy": 1941,
      " bath": 1942,
      "action": 1943,
      " sol": 1944,
      " nose": 1945,
      " ord": 1946,
      "aint": 1947,
      "iling": 1948,
      " months": 1949,
      "-t": 1950,
      " died": 1951,
      " concer": 1952,
      " earth": 1953,
      " anymore": 1954,
      " turning": 1955,
      "ask": 1956,
      " aff": 1957,
      "was": 1958,
      "uff": 1959,
      " terri": 1960,
      " ben": 1961,
      " stri": 1962,
      " wearing": 1963,
      "aughter": 1964,
      " admit": 1965,
      " liked": 1966,
      " steps": 1967,
      " pan": 1968,
      "iece": 1969,
      "here": 1970,
      "hel": 1971,
      " pack": 1972,
      " cover": 1973,
      " ke": 1974,
      " stone": 1975,
      " simply": 1976,
      " mer": 1977,
      " number": 1978,
      "ement": 1979,
      " knees": 1980,
      " sounded": 1981,
      " hers": 1982,
      " became": 1983,
      "-c": 1984,
      " clean": 1985,
      "pec": 1986,
      " slightly": 1987,
      " stupid": 1988,
      " luck": 1989,
      "-h": 1990,
      " finished": 1991,
      " inform": 1992,
      " calm": 1993,
      "sc": 1994,
      " loc": 1995,
      " cell": 1996,
      " lim": 1997,
      "ision": 1998,
      " paper": 1999,
      " wish": 2000,
      " draw": 2001,
      " ring": 2002,
      "because": 2003,
      " covered": 2004,
      " med": 2005,
      " ann": 2006,
      "gu": 2007,
      "ude": 2008,
      " attack": 2009,
      " --": 2010,
      " fair": 2011,
      "ces": 2012,
      " softly": 2013,
      " adv": 2014,
      " alive": 2015,
      " group": 2016,
      "ital": 2017,
      " ble": 2018,
      " round": 2019,
      " throw": 2020,
      "ively": 2021,
      "who": 2022,
      " spent": 2023,
      " sel": 2024,
      " force": 2025,
      "iled": 2026,
      " gener": 2027,
      " narrow": 2028,
      "bbing": 2029,
      "olo": 2030,
      " space": 2031,
      "la": 2032,
      " bedroom": 2033,
      "tern": 2034,
      " rele": 2035,
      " added": 2036,
      " lady": 2037,
      " during": 2038,
      " tall": 2039,
      "mar": 2040,
      "once": 2041,
      " youre": 2042,
      " check": 2043,
      " wants": 2044,
      " reach": 2045,
      " weeks": 2046,
      "band": 2047,
      " gray": 2048,
      " cool": 2049,
      " pulling": 2050,
      " sir": 2051,
      " protect": 2052,
      " ur": 2053,
      " touched": 2054,
      "-l": 2055,
      " cop": 2056,
      " surprise": 2057,
      "pecially": 2058,
      " recogn": 2059,
      "ctor": 2060,
      " hus": 2061,
      " ones": 2062,
      " doubt": 2063,
      " tone": 2064,
      " trouble": 2065,
      "ney": 2066,
      "ci": 2067,
      "teen": 2068,
      " perhaps": 2069,
      " single": 2070,
      " fly": 2071,
      " quietly": 2072,
      " dinner": 2073,
      "-p": 2074,
      " broke": 2075,
      "ails": 2076,
      " beat": 2077,
      " hesit": 2078,
      " christ": 2079,
      " ahead": 2080,
      "vous": 2081,
      " threat": 2082,
      " sold": 2083,
      " alex": 2084,
      " police": 2085,
      " bra": 2086,
      "ael": 2087,
      " crazy": 2088,
      " broken": 2089,
      "old": 2090,
      " headed": 2091,
      " cast": 2092,
      "can": 2093,
      "aching": 2094,
      "con": 2095,
      " stairs": 2096,
      "oof": 2097,
      "oring": 2098,
      " except": 2099,
      "itely": 2100,
      "yond": 2101,
      " sand": 2102,
      " area": 2103,
      " lie": 2104,
      "ular": 2105,
      "rence": 2106,
      " state": 2107,
      " wrapped": 2108,
      " worried": 2109,
      "ages": 2110,
      " circ": 2111,
      " gently": 2112,
      " prof": 2113,
      " drew": 2114,
      " comfort": 2115,
      " follow": 2116,
      "ift": 2117,
      " managed": 2118,
      " bru": 2119,
      " doors": 2120,
      " worse": 2121,
      " kids": 2122,
      " squee": 2123,
      " tiny": 2124,
      " swall": 2125,
      " glad": 2126,
      " wild": 2127,
      "lie": 2128,
      " weap": 2129,
      " paused": 2130,
      "bar": 2131,
      " sounds": 2132,
      " fro": 2133,
      " inf": 2134,
      "ior": 2135,
      " threw": 2136,
      " art": 2137,
      " forget": 2138,
      " fav": 2139,
      " lu": 2140,
      " darkness": 2141,
      " brown": 2142,
      " situ": 2143,
      " silent": 2144,
      "anded": 2145,
      " means": 2146,
      " thanks": 2147,
      " seconds": 2148,
      " sick": 2149,
      " walls": 2150,
      "cks": 2151,
      "ibly": 2152,
      " weak": 2153,
      "gging": 2154,
      " pract": 2155,
      " bill": 2156,
      " prep": 2157,
      " pen": 2158,
      " placed": 2159,
      " stare": 2160,
      " summ": 2161,
      " tomorrow": 2162,
      " lip": 2163,
      " daughter": 2164,
      " dan": 2165,
      " trees": 2166,
      " sugg": 2167,
      " lord": 2168,
      " huge": 2169,
      "pper": 2170,
      " cab": 2171,
      " expected": 2172,
      " mention": 2173,
      "hered": 2174,
      " view": 2175,
      " stret": 2176,
      "ooks": 2177,
      " vict": 2178,
      " gotten": 2179,
      " dar": 2180,
      " comes": 2181,
      " game": 2182,
      "cing": 2183,
      "ica": 2184,
      " den": 2185,
      " spl": 2186,
      " wound": 2187,
      "ination": 2188,
      " law": 2189,
      " distance": 2190,
      "your": 2191,
      " la": 2192,
      "ining": 2193,
      "rac": 2194,
      " lean": 2195,
      " serious": 2196,
      " scr": 2197,
      "ns": 2198,
      "ping": 2199,
      " pocket": 2200,
      " ris": 2201,
      " magic": 2202,
      " news": 2203,
      " heat": 2204,
      " cas": 2205,
      " tree": 2206,
      "orted": 2207,
      "inst": 2208,
      " offic": 2209,
      "sure": 2210,
      " catch": 2211,
      "riend": 2212,
      " meeting": 2213,
      " john": 2214,
      " fif": 2215,
      " brief": 2216,
      " position": 2217,
      " spread": 2218,
      " angry": 2219,
      "ific": 2220,
      " fle": 2221,
      "zed": 2222,
      " path": 2223,
      " mel": 2224,
      " party": 2225,
      " rid": 2226,
      " def": 2227,
      " van": 2228,
      " piece": 2229,
      " seems": 2230,
      " eight": 2231,
      "-d": 2232,
      " trans": 2233,
      " waist": 2234,
      " sett": 2235,
      "than": 2236,
      " early": 2237,
      " jul": 2238,
      " carry": 2239,
      "aped": 2240,
      " priv": 2241,
      "-b": 2242,
      " self": 2243,
      " ange": 2244,
      "lier": 2245,
      " ign": 2246,
      " jaw": 2247,
      " forced": 2248,
      " ship": 2249,
      "reen": 2250,
      "-m": 2251,
      " lying": 2252,
      " beyond": 2253,
      " sigh": 2254,
      "aling": 2255,
      " anger": 2256,
      "cious": 2257,
      "ousand": 2258,
      " sharp": 2259,
      "ics": 2260,
      " eyeb": 2261,
      " mount": 2262,
      "ested": 2263,
      " bottom": 2264,
      " slam": 2265,
      "cted": 2266,
      " hide": 2267,
      " respond": 2268,
      " wet": 2269,
      "str": 2270,
      " murm": 2271,
      " pee": 2272,
      "ecting": 2273,
      " bir": 2274,
      " serv": 2275,
      "esh": 2276,
      " tired": 2277,
      "iliar": 2278,
      " gent": 2279,
      " surround": 2280,
      " bull": 2281,
      " strugg": 2282,
      " blank": 2283,
      " agreed": 2284,
      "ipping": 2285,
      " fut": 2286,
      " hey": 2287,
      " snapped": 2288,
      " wed": 2289,
      " tu": 2290,
      "using": 2291,
      " choice": 2292,
      " chin": 2293,
      "ja": 2294,
      " anim": 2295,
      " expect": 2296,
      " toss": 2297,
      "-sh": 2298,
      " nervous": 2299,
      " promise": 2300,
      " drag": 2301,
      " pun": 2302,
      "cho": 2303,
      " forgot": 2304,
      " suit": 2305,
      " often": 2306,
      " surv": 2307,
      " fit": 2308,
      "fer": 2309,
      "ery": 2310,
      " compl": 2311,
      " husband": 2312,
      " takes": 2313,
      " stren": 2314,
      " defin": 2315,
      " shaking": 2316,
      " cond": 2317,
      " hate": 2318,
      " mis": 2319,
      " chuck": 2320,
      " save": 2321,
      " relax": 2322,
      " reve": 2323,
      " truck": 2324,
      "ding": 2325,
      " thousand": 2326,
      " main": 2327,
      " attem": 2328,
      " desper": 2329,
      " bathroom": 2330,
      "ats": 2331,
      " grinned": 2332,
      " slipped": 2333,
      " mass": 2334,
      "anding": 2335,
      "aked": 2336,
      "roll": 2337,
      " und": 2338,
      " tot": 2339,
      "something": 2340,
      "ron": 2341,
      "tering": 2342,
      " rain": 2343,
      " mill": 2344,
      "ris": 2345,
      " sword": 2346,
      " boys": 2347,
      "igg": 2348,
      "before": 2349,
      " playing": 2350,
      "idence": 2351,
      " worth": 2352,
      " smiling": 2353,
      "yeah": 2354,
      " pleasure": 2355,
      " val": 2356,
      " evening": 2357,
      " arrived": 2358,
      "ooking": 2359,
      " below": 2360,
      " explo": 2361,
      " hed": 2362,
      " requ": 2363,
      "elle": 2364,
      " locked": 2365,
      " further": 2366,
      " crossed": 2367,
      " eyebrow": 2368,
      " demon": 2369,
      " thin": 2370,
      " team": 2371,
      " jumped": 2372,
      " earlier": 2373,
      " lap": 2374,
      " asking": 2375,
      " tast": 2376,
      "arm": 2377,
      " somehow": 2378,
      " normal": 2379,
      "erm": 2380,
      " repe": 2381,
      " frowned": 2382,
      " bal": 2383,
      "ucked": 2384,
      " enc": 2385,
      "thats": 2386,
      " keeping": 2387,
      " dry": 2388,
      "iam": 2389,
      "'i": 2390,
      "ancing": 2391,
      "ana": 2392,
      "ishing": 2393,
      " invol": 2394,
      " flat": 2395,
      " center": 2396,
      " cheeks": 2397,
      " muttered": 2398,
      "res": 2399,
      " listen": 2400,
      " pound": 2401,
      " lights": 2402,
      " realize": 2403,
      " amaz": 2404,
      " rich": 2405,
      "only": 2406,
      " showed": 2407,
      " send": 2408,
      " incl": 2409,
      " lived": 2410,
      " none": 2411,
      " hoped": 2412,
      "ressed": 2413,
      " sar": 2414,
      " glance": 2415,
      " explain": 2416,
      " vi": 2417,
      " const": 2418,
      "ote": 2419,
      " dog": 2420,
      "ander": 2421,
      " vo": 2422,
      " fold": 2423,
      "bes": 2424,
      " bow": 2425,
      "ative": 2426,
      "while": 2427,
      " camp": 2428,
      "ager": 2429,
      " letting": 2430,
      " wip": 2431,
      " cru": 2432,
      " lose": 2433,
      " grew": 2434,
      " clearly": 2435,
      " mid": 2436,
      " picture": 2437,
      "kes": 2438,
      "rit": 2439,
      " odd": 2440,
      " hoping": 2441,
      " weight": 2442,
      " strength": 2443,
      " ears": 2444,
      " ice": 2445,
      " soul": 2446,
      " cup": 2447,
      "aire": 2448,
      "pite": 2449,
      " assum": 2450,
      " wore": 2451,
      "owers": 2452,
      " rad": 2453,
      " favor": 2454,
      " bell": 2455,
      " track": 2456,
      " ener": 2457,
      "fied": 2458,
      " music": 2459,
      " notice": 2460,
      " lives": 2461,
      "ges": 2462,
      " gentle": 2463,
      "mer": 2464,
      "uct": 2465,
      " whisper": 2466,
      "gar": 2467,
      " brain": 2468,
      " spir": 2469,
      "nothing": 2470,
      " offered": 2471,
      " using": 2472,
      " hosp": 2473,
      " fix": 2474,
      " future": 2475,
      "sts": 2476,
      " talked": 2477,
      " band": 2478,
      "zen": 2479,
      " ant": 2480,
      " visit": 2481,
      " handle": 2482,
      " silver": 2483,
      "orge": 2484,
      " bas": 2485,
      " disco": 2486,
      "ills": 2487,
      " whether": 2488,
      " field": 2489,
      " dressed": 2490,
      " super": 2491,
      " ash": 2492,
      " forehead": 2493,
      "miss": 2494,
      " ta": 2495,
      " tun": 2496,
      " fail": 2497,
      " clou": 2498,
      " queen": 2499,
      " wolf": 2500,
      "og": 2501,
      "from": 2502,
      " easily": 2503,
      " key": 2504,
      " scared": 2505,
      " event": 2506,
      " diff": 2507,
      " avo": 2508,
      " imagine": 2509,
      " color": 2510,
      " helped": 2511,
      "idden": 2512,
      " battle": 2513,
      " familiar": 2514,
      " deser": 2515,
      " allowed": 2516,
      " laughing": 2517,
      " entered": 2518,
      " snow": 2519,
      " stayed": 2520,
      " special": 2521,
      " remained": 2522,
      " shall": 2523,
      "ural": 2524,
      " pair": 2525,
      " memory": 2526,
      " motion": 2527,
      " knife": 2528,
      " firm": 2529,
      " gest": 2530,
      "ald": 2531,
      " doctor": 2532,
      "val": 2533,
      " handed": 2534,
      "oss": 2535,
      " itself": 2536,
      "asing": 2537,
      " appear": 2538,
      " lower": 2539,
      "ault": 2540,
      " ver": 2541,
      "avid": 2542,
      " unc": 2543,
      "still": 2544,
      " counter": 2545,
      " shoot": 2546,
      " relation": 2547,
      " honest": 2548,
      " aware": 2549,
      "men": 2550,
      " fem": 2551,
      " age": 2552,
      " pot": 2553,
      " needs": 2554,
      "good": 2555,
      " bod": 2556,
      "instead": 2557,
      "iel": 2558,
      " thats": 2559,
      "inked": 2560,
      " dim": 2561,
      "ract": 2562,
      " metal": 2563,
      " musc": 2564,
      " test": 2565,
      "will": 2566,
      " effort": 2567,
      " phot": 2568,
      "shes": 2569,
      "ses": 2570,
      " company": 2571,
      " surf": 2572,
      " missed": 2573,
      " gets": 2574,
      " horse": 2575,
      " glo": 2576,
      "noon": 2577,
      "ises": 2578,
      "ring": 2579,
      " hospital": 2580,
      "rian": 2581,
      "inct": 2582,
      "tend": 2583,
      " difficul": 2584,
      "que": 2585,
      " push": 2586,
      " flesh": 2587,
      "gin": 2588,
      " fighting": 2589,
      " wouldnt": 2590,
      "ott": 2591,
      "idge": 2592,
      " forever": 2593,
      " f**king": 2594,
      " equ": 2595,
      " pin": 2596,
      " wel": 2597,
      "izing": 2598,
      " crack": 2599,
      " pale": 2600,
      "please": 2601,
      " simple": 2602,
      " however": 2603,
      " willing": 2604,
      " scent": 2605,
      "ues": 2606,
      " lock": 2607,
      " arg": 2608,
      " contact": 2609,
      " moon": 2610,
      " level": 2611,
      " proper": 2612,
      " fresh": 2613,
      " shouted": 2614,
      "usion": 2615,
      " older": 2616,
      " phys": 2617,
      "ries": 2618,
      "udd": 2619,
      "uly": 2620,
      " pop": 2621,
      " note": 2622,
      "icular": 2623,
      "ipp": 2624,
      " energy": 2625,
      " among": 2626,
      " jeans": 2627,
      " destro": 2628,
      " nick": 2629,
      " personal": 2630,
      "ayed": 2631,
      " jen": 2632,
      " store": 2633,
      " falling": 2634,
      "ession": 2635,
      " focus": 2636,
      "ded": 2637,
      " grace": 2638,
      " stick": 2639,
      " although": 2640,
      " married": 2641,
      "alth": 2642,
      "par": 2643,
      " len": 2644,
      " drop": 2645,
      "arently": 2646,
      "vern": 2647,
      " couch": 2648,
      "lt": 2649,
      "yle": 2650,
      "oned": 2651,
      "ucking": 2652,
      " learned": 2653,
      " cried": 2654,
      " shadow": 2655,
      " aside": 2656,
      " hated": 2657,
      " gon": 2658,
      " frey": 2659,
      " lad": 2660,
      " appre": 2661,
      " ge": 2662,
      " cand": 2663,
      "urity": 2664,
      "olute": 2665,
      " present": 2666,
      " vampires": 2667,
      " emotion": 2668,
      " emer": 2669,
      "ustr": 2670,
      " scar": 2671,
      "amb": 2672,
      "lin": 2673,
      "ived": 2674,
      "stairs": 2675,
      " lab": 2676,
      "bel": 2677,
      " cho": 2678,
      " treat": 2679,
      " shock": 2680,
      " desire": 2681,
      " shower": 2682,
      " river": 2683,
      " discus": 2684,
      "mr": 2685,
      "ives": 2686,
      " drove": 2687,
      "leep": 2688,
      " spo": 2689,
      " goes": 2690,
      " shake": 2691,
      "line": 2692,
      " settled": 2693,
      "ichael": 2694,
      " port": 2695,
      "cri": 2696,
      " tar": 2697,
      " asks": 2698,
      "cher": 2699,
      " wanting": 2700,
      " usually": 2701,
      " mot": 2702,
      "-the": 2703,
      " fil": 2704,
      " hat": 2705,
      "hell": 2706,
      " noise": 2707,
      "jack": 2708,
      " thigh": 2709,
      " stuck": 2710,
      " park": 2711,
      " jud": 2712,
      " master": 2713,
      " speed": 2714,
      " sweat": 2715,
      " busy": 2716,
      "okay": 2717,
      " carried": 2718,
      "lan": 2719,
      " hips": 2720,
      " windows": 2721,
      " blond": 2722,
      "sion": 2723,
      "den": 2724,
      " escape": 2725,
      " likely": 2726,
      "alk": 2727,
      "ously": 2728,
      " ride": 2729,
      " fill": 2730,
      " prov": 2731,
      "ashing": 2732,
      " jump": 2733,
      " turns": 2734,
      " moments": 2735,
      "astic": 2736,
      " bottle": 2737,
      " claim": 2738,
      "iers": 2739,
      " shifted": 2740,
      "ope": 2741,
      " putting": 2742,
      " dust": 2743,
      "ils": 2744,
      "aff": 2745,
      "rupt": 2746,
      " calling": 2747,
      " hanging": 2748,
      " sen": 2749,
      " ended": 2750,
      " screamed": 2751,
      " screen": 2752,
      " mirror": 2753,
      " captain": 2754,
      "gen": 2755,
      " date": 2756,
      " starting": 2757,
      " figured": 2758,
      " burst": 2759,
      " third": 2760,
      " grip": 2761,
      " shed": 2762,
      " fuck": 2763,
      "onse": 2764,
      "rod": 2765,
      " knee": 2766,
      " bent": 2767,
      " hallway": 2768,
      " fool": 2769,
      "pet": 2770,
      " court": 2771,
      " tele": 2772,
      " murmured": 2773,
      " rece": 2774,
      " grim": 2775,
      "asm": 2776,
      " missing": 2777,
      " study": 2778,
      " powerful": 2779,
      " fa": 2780,
      "youre": 2781,
      " relief": 2782,
      " offer": 2783,
      " belong": 2784,
      " sea": 2785,
      " ell": 2786,
      " spend": 2787,
      "acy": 2788,
      " pants": 2789,
      " camer": 2790,
      "velo": 2791,
      " freyja": 2792,
      " viol": 2793,
      " taste": 2794,
      " determ": 2795,
      "ella": 2796,
      "had": 2797,
      " bodies": 2798,
      " learn": 2799,
      "rance": 2800,
      " wit": 2801,
      "stem": 2802,
      " pill": 2803,
      " ry": 2804,
      " max": 2805,
      " maj": 2806,
      " opening": 2807,
      " thirty": 2808,
      " comput": 2809,
      "acher": 2810,
      " wid": 2811,
      "thank": 2812,
      " exam": 2813,
      " dance": 2814,
      " twisted": 2815,
      " wear": 2816,
      " share": 2817,
      " flash": 2818,
      " guards": 2819,
      " thumb": 2820,
      "lyn": 2821,
      " security": 2822,
      "rid": 2823,
      " club": 2824,
      "bing": 2825,
      " imposs": 2826,
      " country": 2827,
      "oming": 2828,
      " hea": 2829,
      "ius": 2830,
      " clen": 2831,
      " careful": 2832,
      "inting": 2833,
      "anted": 2834,
      " pi": 2835,
      " peace": 2836,
      "sidered": 2837,
      "ians": 2838,
      " pul": 2839,
      "-w": 2840,
      " harder": 2841,
      "ball": 2842,
      " nod": 2843,
      "ading": 2844,
      " apolo": 2845,
      " response": 2846,
      " hist": 2847,
      "inc": 2848,
      " por": 2849,
      "ified": 2850,
      "attered": 2851,
      "rem": 2852,
      " publ": 2853,
      " wake": 2854,
      "ena": 2855,
      " dear": 2856,
      "two": 2857,
      "anda": 2858,
      " sleeping": 2859,
      " usual": 2860,
      " system": 2861,
      "atic": 2862,
      " prop": 2863,
      " don": 2864,
      " pink": 2865,
      " station": 2866,
      " ways": 2867,
      " laid": 2868,
      "ledge": 2869,
      " bother": 2870,
      " remo": 2871,
      " mal": 2872,
      " dru": 2873,
      "unity": 2874,
      "rel": 2875,
      " message": 2876,
      " truly": 2877,
      "athan": 2878,
      " echo": 2879,
      "their": 2880,
      " places": 2881,
      " leather": 2882,
      " enem": 2883,
      " horri": 2884,
      " wave": 2885,
      "rass": 2886,
      " yours": 2887,
      "ston": 2888,
      " writ": 2889,
      " hy": 2890,
      " asleep": 2891,
      " tear": 2892,
      " waved": 2893,
      " grab": 2894,
      " hadnt": 2895,
      " summer": 2896,
      " blinked": 2897,
      "illy": 2898,
      "ob": 2899,
      "usted": 2900,
      " obvious": 2901,
      " wine": 2902,
      " hotel": 2903,
      " effect": 2904,
      " blind": 2905,
      "under": 2906,
      "ca": 2907,
      " presence": 2908,
      " mov": 2909,
      " mrs.": 2910,
      "die": 2911,
      "ury": 2912,
      "said": 2913,
      " books": 2914,
      " purp": 2915,
      "fast": 2916,
      " absolute": 2917,
      "perhaps": 2918,
      "hen": 2919,
      " trip": 2920,
      "mit": 2921,
      " doesnt": 2922,
      "barrass": 2923,
      "bby": 2924,
      " feelings": 2925,
      "asted": 2926,
      " forest": 2927,
      " burned": 2928,
      " smooth": 2929,
      " growing": 2930,
      " island": 2931,
      " dig": 2932,
      " card": 2933,
      " birth": 2934,
      " defe": 2935,
      " rough": 2936,
      " imm": 2937,
      " dom": 2938,
      " speaking": 2939,
      " bast": 2940,
      "which": 2941,
      " humans": 2942,
      " smoke": 2943,
      " reading": 2944,
      "anna": 2945,
      " yelled": 2946,
      "iot": 2947,
      "eric": 2948,
      " reminded": 2949,
      " vill": 2950,
      "dam": 2951,
      " james": 2952,
      " appreci": 2953,
      " burning": 2954,
      " weird": 2955,
      " final": 2956,
      " accept": 2957,
      " craw": 2958,
      " palm": 2959,
      " anywhere": 2960,
      "icious": 2961,
      " private": 2962,
      "-to": 2963,
      " north": 2964,
      " f**k": 2965,
      " shop": 2966,
      " hen": 2967,
      "des": 2968,
      "ern": 2969,
      "bert": 2970,
      " forth": 2971,
      " cabin": 2972,
      " hol": 2973,
      "another": 2974,
      " confused": 2975,
      "see": 2976,
      "ution": 2977,
      " lunch": 2978,
      " believed": 2979,
      "ai": 2980,
      "aur": 2981,
      " ut": 2982,
      "urch": 2983,
      " piss": 2984,
      " fallen": 2985,
      "yn": 2986,
      "omb": 2987,
      "-in": 2988,
      "would": 2989,
      " consider": 2990,
      " prison": 2991,
      " vision": 2992,
      " hidden": 2993,
      " bear": 2994,
      " stee": 2995,
      " seven": 2996,
      " satis": 2997,
      " shadows": 2998,
      " mort": 2999,
      "ounced": 3000,
      " suppose": 3001,
      "finally": 3002,
      " shoved": 3003,
      " feels": 3004,
      " pushing": 3005,
      " surface": 3006,
      " doorway": 3007,
      " necess": 3008,
      " faint": 3009,
      " poor": 3010,
      " miles": 3011,
      " lucky": 3012,
      " directly": 3013,
      " shoes": 3014,
      " song": 3015,
      " finding": 3016,
      " bite": 3017,
      "imp": 3018,
      " base": 3019,
      "-st": 3020,
      " entrance": 3021,
      " jacket": 3022,
      " jam": 3023,
      " tow": 3024,
      " sides": 3025,
      "asked": 3026,
      " var": 3027,
      " oppos": 3028,
      "oose": 3029,
      "itive": 3030,
      "oint": 3031,
      "ooked": 3032,
      " climbed": 3033,
      " storm": 3034,
      " allow": 3035,
      " enjoy": 3036,
      "omed": 3037,
      " uncle": 3038,
      " suff": 3039,
      " rubbed": 3040,
      " colle": 3041,
      " conv": 3042,
      " corre": 3043,
      " elect": 3044,
      " mach": 3045,
      " mere": 3046,
      " grass": 3047,
      " soc": 3048,
      "ety": 3049,
      " arr": 3050,
      " succ": 3051,
      " elb": 3052,
      "inging": 3053,
      " fought": 3054,
      "fl": 3055,
      " spell": 3056,
      "ades": 3057,
      "comfort": 3058,
      " extra": 3059,
      "fortun": 3060,
      "rick": 3061,
      " faces": 3062,
      " wished": 3063,
      " est": 3064,
      " trick": 3065,
      " played": 3066,
      " rom": 3067,
      "dont": 3068,
      "ners": 3069,
      " gard": 3070,
      "cil": 3071,
      " wont": 3072,
      " loose": 3073,
      "rage": 3074,
      "ension": 3075,
      " repeated": 3076,
      "riage": 3077,
      "icated": 3078,
      "yer": 3079,
      "ev": 3080,
      " finish": 3081,
      "time": 3082,
      " male": 3083,
      " demanded": 3084,
      " doll": 3085,
      " evil": 3086,
      "asion": 3087,
      " slammed": 3088,
      " lowered": 3089,
      " funny": 3090,
      " inde": 3091,
      " jake": 3092,
      " ig": 3093,
      " circle": 3094,
      " warri": 3095,
      " post": 3096,
      " crying": 3097,
      " involved": 3098,
      " coat": 3099,
      " join": 3100,
      " hole": 3101,
      "eding": 3102,
      "yal": 3103,
      "work": 3104,
      "athered": 3105,
      " tossed": 3106,
      " frustr": 3107,
      " trail": 3108,
      " roof": 3109,
      " vol": 3110,
      " invest": 3111,
      " cleared": 3112,
      "board": 3113,
      "off": 3114,
      " warning": 3115,
      "anging": 3116,
      " jon": 3117,
      "gl": 3118,
      " fist": 3119,
      " lung": 3120,
      " rap": 3121,
      "issa": 3122,
      " wrist": 3123,
      "roud": 3124,
      " computer": 3125,
      " stiff": 3126,
      " beer": 3127,
      "eces": 3128,
      " muscles": 3129,
      " agree": 3130,
      " angel": 3131,
      " clut": 3132,
      " board": 3133,
      "izz": 3134,
      "bers": 3135,
      " driving": 3136,
      " fort": 3137,
      " faster": 3138,
      "hood": 3139,
      "-a": 3140,
      "mon": 3141,
      " lang": 3142,
      " cu": 3143,
      " prod": 3144,
      " church": 3145,
      "car": 3146,
      " thrust": 3147,
      " ment": 3148,
      " includ": 3149,
      " process": 3150,
      " inno": 3151,
      "omas": 3152,
      " tip": 3153,
      "oured": 3154,
      " gho": 3155,
      "wise": 3156,
      "luc": 3157,
      " memories": 3158,
      " disc": 3159,
      "allen": 3160,
      " continue": 3161,
      " south": 3162,
      " breathe": 3163,
      " image": 3164,
      " adam": 3165,
      " sav": 3166,
      " accom": 3167,
      " gasped": 3168,
      " kicked": 3169,
      " aut": 3170,
      "bor": 3171,
      " weapon": 3172,
      "everyone": 3173,
      " david": 3174,
      "ands": 3175,
      " neither": 3176,
      "nored": 3177,
      " acce": 3178,
      " laught": 3179,
      " respons": 3180,
      " decision": 3181,
      " wheel": 3182,
      " totally": 3183,
      " matt": 3184,
      "ibility": 3185,
      " attempt": 3186,
      " ceiling": 3187,
      " heads": 3188,
      " laughter": 3189,
      " checked": 3190,
      " foc": 3191,
      " ordered": 3192,
      " rul": 3193,
      " gate": 3194,
      " west": 3195,
      " swung": 3196,
      " subject": 3197,
      " buy": 3198,
      " amazing": 3199,
      " brothers": 3200,
      " tremb": 3201,
      " lat": 3202,
      " nur": 3203,
      " du": 3204,
      " hardly": 3205,
      " army": 3206,
      "tr": 3207,
      " rac": 3208,
      " brushed": 3209,
      " leaning": 3210,
      " squeezed": 3211,
      " cass": 3212,
      " buck": 3213,
      " div": 3214,
      " pant": 3215,
      "itched": 3216,
      " aud": 3217,
      " promised": 3218,
      " rush": 3219,
      "vy": 3220,
      " respect": 3221,
      "friend": 3222,
      " fully": 3223,
      " blow": 3224,
      " cock": 3225,
      " hiding": 3226,
      "sam": 3227,
      " feat": 3228,
      " button": 3229,
      "without": 3230,
      " purpose": 3231,
      " exist": 3232,
      " report": 3233,
      " rese": 3234,
      " ignored": 3235,
      "lish": 3236,
      " focused": 3237,
      " driver": 3238,
      "-i": 3239,
      " rev": 3240,
      "kn": 3241,
      " risk": 3242,
      "irst": 3243,
      " gigg": 3244,
      " heading": 3245,
      "ait": 3246,
      "ivers": 3247,
      "iety": 3248,
      "kend": 3249,
      "god": 3250,
      " flew": 3251,
      " mood": 3252,
      "ague": 3253,
      " bitch": 3254,
      " gras": 3255,
      " beast": 3256,
      "ids": 3257,
      "dom": 3258,
      "-up": 3259,
      "aming": 3260,
      "essed": 3261,
      "ett": 3262,
      " gut": 3263,
      " numb": 3264,
      " stream": 3265,
      "nel": 3266,
      "lock": 3267,
      " anc": 3268,
      " ethan": 3269,
      " til": 3270,
      "ored": 3271,
      " terrible": 3272,
      " suggest": 3273,
      "ium": 3274,
      " incred": 3275,
      " paid": 3276,
      " killing": 3277,
      "tended": 3278,
      " proud": 3279,
      " yellow": 3280,
      " neigh": 3281,
      " jour": 3282,
      " female": 3283,
      " possibly": 3284,
      " upset": 3285,
      " regret": 3286,
      " public": 3287,
      " fright": 3288,
      " ori": 3289,
      " scene": 3290,
      " rushed": 3291,
      " beach": 3292,
      " rob": 3293,
      " anno": 3294,
      " smart": 3295,
      " pool": 3296,
      "iday": 3297,
      "und": 3298,
      " naked": 3299,
      " unless": 3300,
      "uce": 3301,
      " ive": 3302,
      "ork": 3303,
      " refle": 3304,
      " soldiers": 3305,
      " blur": 3306,
      "aly": 3307,
      " spark": 3308,
      "inn": 3309,
      " oper": 3310,
      " dr.": 3311,
      " struck": 3312,
      " history": 3313,
      " lift": 3314,
      " blade": 3315,
      " tightly": 3316,
      " born": 3317,
      " lines": 3318,
      " bound": 3319,
      " flying": 3320,
      " general": 3321,
      " separ": 3322,
      " wedding": 3323,
      " length": 3324,
      " size": 3325,
      " jerked": 3326,
      " pieces": 3327,
      " woods": 3328,
      " sof": 3329,
      " aunt": 3330,
      "rap": 3331,
      " excited": 3332,
      " kat": 3333,
      " wooden": 3334,
      " parking": 3335,
      " opposite": 3336,
      "het": 3337,
      " plate": 3338,
      "never": 3339,
      " boat": 3340,
      "back": 3341,
      " cause": 3342,
      "ama": 3343,
      " elev": 3344,
      " worst": 3345,
      " tech": 3346,
      "ico": 3347,
      "ational": 3348,
      "ground": 3349,
      " rh": 3350,
      "asy": 3351,
      "otions": 3352,
      " hearing": 3353,
      " joined": 3354,
      " search": 3355,
      "bit": 3356,
      " boots": 3357,
      " fer": 3358,
      "someone": 3359,
      " twice": 3360,
      " brow": 3361,
      "ables": 3362,
      "over": 3363,
      "annah": 3364,
      " comb": 3365,
      " current": 3366,
      "were": 3367,
      " pier": 3368,
      " despite": 3369,
      " leaves": 3370,
      " flu": 3371,
      "racted": 3372,
      " mary": 3373,
      " inj": 3374,
      " backward": 3375,
      " fault": 3376,
      "those": 3377,
      "top": 3378,
      " train": 3379,
      "centr": 3380,
      "lessly": 3381,
      "ilar": 3382,
      " kick": 3383,
      " breast": 3384,
      " hunter": 3385,
      "agged": 3386,
      " plans": 3387,
      "icate": 3388,
      " studied": 3389,
      " rising": 3390,
      "look": 3391,
      " mike": 3392,
      " x": 3393,
      " curled": 3394,
      " dreams": 3395,
      " unable": 3396,
      " steady": 3397,
      "father": 3398,
      " text": 3399,
      "terday": 3400,
      " claw": 3401,
      " ident": 3402,
      "eve": 3403,
      " descri": 3404,
      " gab": 3405,
      " slept": 3406,
      "alex": 3407,
      "oot": 3408,
      " happens": 3409,
      "une": 3410,
      " fat": 3411,
      " built": 3412,
      " creature": 3413,
      " coo": 3414,
      "shit": 3415,
      "zing": 3416,
      " psy": 3417,
      "step": 3418,
      "besides": 3419,
      "ivered": 3420,
      " reaction": 3421,
      " opt": 3422,
      "house": 3423,
      " non": 3424,
      " released": 3425,
      "icle": 3426,
      "ensive": 3427,
      " movement": 3428,
      "ias": 3429,
      " narrowed": 3430,
      "ancy": 3431,
      " panic": 3432,
      " unf": 3433,
      " caused": 3434,
      " lake": 3435,
      " broad": 3436,
      " flashed": 3437,
      "since": 3438,
      " emotions": 3439,
      " dirt": 3440,
      "mother": 3441,
      " prepared": 3442,
      " iron": 3443,
      " honey": 3444,
      " mic": 3445,
      " accident": 3446,
      " hill": 3447,
      " golden": 3448,
      " mistake": 3449,
      "case": 3450,
      " greet": 3451,
      " easier": 3452,
      "ker": 3453,
      " rang": 3454,
      " listened": 3455,
      "ective": 3456,
      " bloody": 3457,
      "mas": 3458,
      " pad": 3459,
      "itting": 3460,
      " rum": 3461,
      " shudd": 3462,
      " touching": 3463,
      " shape": 3464,
      " breaking": 3465,
      " scan": 3466,
      " fren": 3467,
      "uced": 3468,
      " tent": 3469,
      " sink": 3470,
      " growled": 3471,
      "liv": 3472,
      " saf": 3473,
      "ords": 3474,
      "por": 3475,
      " mostly": 3476,
      " quar": 3477,
      "icip": 3478,
      " hig": 3479,
      "aret": 3480,
      " deeper": 3481,
      "have": 3482,
      " spirit": 3483,
      " dut": 3484,
      " exha": 3485,
      " decide": 3486,
      "char": 3487,
      " kissing": 3488,
      "lu": 3489,
      " hungry": 3490,
      " wee": 3491,
      "tell": 3492,
      " support": 3493,
      " concentr": 3494,
      "ism": 3495,
      " mart": 3496,
      " interru": 3497,
      " concern": 3498,
      " thinks": 3499,
      " flight": 3500,
      " opport": 3501,
      "ral": 3502,
      " murder": 3503,
      "ume": 3504,
      " woke": 3505,
      " eating": 3506,
      "wers": 3507,
      " mix": 3508,
      " clenched": 3509,
      " ari": 3510,
      " square": 3511,
      " favorite": 3512,
      " challen": 3513,
      " jason": 3514,
      " spun": 3515,
      "agger": 3516,
      "ests": 3517,
      "arily": 3518,
      " welcome": 3519,
      " engine": 3520,
      " michael": 3521,
      " type": 3522,
      "key": 3523,
      " travel": 3524,
      " removed": 3525,
      " landed": 3526,
      " trave": 3527,
      " anx": 3528,
      "hold": 3529,
      " tick": 3530,
      " fier": 3531,
      " smiles": 3532,
      " ah": 3533,
      " whose": 3534,
      " stun": 3535,
      " auth": 3536,
      " reaching": 3537,
      " eyebrows": 3538,
      " sne": 3539,
      "gre": 3540,
      " chuckled": 3541,
      " ow": 3542,
      " refused": 3543,
      " dying": 3544,
      " entirely": 3545,
      " shield": 3546,
      " animal": 3547,
      " sour": 3548,
      " losing": 3549,
      " object": 3550,
      "uel": 3551,
      "kward": 3552,
      " chapter": 3553,
      "nat": 3554,
      "itude": 3555,
      "oll": 3556,
      " wings": 3557,
      " mac": 3558,
      "pro": 3559,
      " frank": 3560,
      "end": 3561,
      "sl": 3562,
      " reply": 3563,
      " instinct": 3564,
      " avoid": 3565,
      " weapons": 3566,
      " planned": 3567,
      "gie": 3568,
      " college": 3569,
      " gather": 3570,
      " boss": 3571,
      "igned": 3572,
      " govern": 3573,
      " dirty": 3574,
      "tense": 3575,
      " shared": 3576,
      " breathed": 3577,
      " knocked": 3578,
      "asc": 3579,
      " pit": 3580,
      " peter": 3581,
      " tea": 3582,
      " gods": 3583,
      " staying": 3584,
      " paul": 3585,
      "umbling": 3586,
      " curt": 3587,
      " brand": 3588,
      "ented": 3589,
      "min": 3590,
      " prince": 3591,
      " ban": 3592,
      " command": 3593,
      " gathered": 3594,
      " instant": 3595,
      " obser": 3596,
      "pting": 3597,
      " showing": 3598,
      " excuse": 3599,
      " scrat": 3600,
      " gives": 3601,
      " crew": 3602,
      " pray": 3603,
      "although": 3604,
      " soph": 3605,
      " gift": 3606,
      " mountain": 3607,
      " carrying": 3608,
      " saved": 3609,
      " comment": 3610,
      "formed": 3611,
      " belly": 3612,
      " harm": 3613,
      " hug": 3614,
      " bones": 3615,
      " victor": 3616,
      " awkward": 3617,
      " double": 3618,
      " nearby": 3619,
      "ham": 3620,
      "claim": 3621,
      " smir": 3622,
      " answers": 3623,
      " ya": 3624,
      " drunk": 3625,
      " grown": 3626,
      " sucked": 3627,
      " grey": 3628,
      " hors": 3629,
      " bought": 3630,
      "bast": 3631,
      " restaur": 3632,
      " aim": 3633,
      "antic": 3634,
      "wood": 3635,
      " admitted": 3636,
      " groaned": 3637,
      " cook": 3638,
      "-shirt": 3639,
      "iving": 3640,
      "arch": 3641,
      " deeply": 3642,
      " hurried": 3643,
      " godd": 3644,
      " bastard": 3645,
      " bridge": 3646,
      " libr": 3647,
      "ura": 3648,
      " sending": 3649,
      " convin": 3650,
      " calls": 3651,
      " stories": 3652,
      " instru": 3653,
      " pregn": 3654,
      " yan": 3655,
      " giant": 3656,
      " solid": 3657,
      " bringing": 3658,
      " record": 3659,
      "nday": 3660,
      "these": 3661,
      " cow": 3662,
      " cost": 3663,
      " jes": 3664,
      " uh": 3665,
      " screw": 3666,
      " inh": 3667,
      "alled": 3668,
      " shel": 3669,
      " drif": 3670,
      "unted": 3671,
      " chase": 3672,
      " rare": 3673,
      " shocked": 3674,
      "ray": 3675,
      " glow": 3676,
      " dragged": 3677,
      "reme": 3678,
      " joy": 3679,
      " vir": 3680,
      " investig": 3681,
      " arch": 3682,
      " magn": 3683,
      "raph": 3684,
      " buried": 3685,
      "could": 3686,
      " stage": 3687,
      " regard": 3688,
      " warmth": 3689,
      " butt": 3690,
      " jess": 3691,
      "jul": 3692,
      " knock": 3693,
      " occasion": 3694,
      "mp": 3695,
      " major": 3696,
      " ju": 3697,
      " exch": 3698,
      " rachel": 3699,
      " stir": 3700,
      "port": 3701,
      " helping": 3702,
      " sexy": 3703,
      " pictures": 3704,
      " staff": 3705,
      "itted": 3706,
      "itor": 3707,
      "***": 3708,
      "nie": 3709,
      "uss": 3710,
      " cars": 3711,
      " imagined": 3712,
      " pleased": 3713,
      " prefer": 3714,
      " awake": 3715,
      "asons": 3716,
      " pulls": 3717,
      " san": 3718,
      " faded": 3719,
      "ios": 3720,
      " author": 3721,
      " dare": 3722,
      "ument": 3723,
      " swear": 3724,
      " myster": 3725,
      " marry": 3726,
      " cust": 3727,
      " success": 3728,
      " spin": 3729,
      " letter": 3730,
      " isnt": 3731,
      "dan": 3732,
      " sha": 3733,
      " dragon": 3734,
      "idering": 3735,
      " stat": 3736,
      " t-shirt": 3737,
      " tour": 3738,
      "da": 3739,
      " remain": 3740,
      " amb": 3741,
      " slo": 3742,
      " fucking": 3743,
      "-but": 3744,
      " fifteen": 3745,
      " pure": 3746,
      " folded": 3747,
      " reality": 3748,
      "ashes": 3749,
      "yet": 3750,
      " nine": 3751,
      "sudden": 3752,
      " horses": 3753,
      " intense": 3754,
      "whate": 3755,
      " beauty": 3756,
      " heaven": 3757,
      "play": 3758,
      " hi": 3759,
      " wiped": 3760,
      "-th": 3761,
      " local": 3762,
      "whatever": 3763,
      " action": 3764,
      "nes": 3765,
      "amber": 3766,
      "isa": 3767,
      " service": 3768,
      " cig": 3769,
      " gle": 3770,
      " training": 3771,
      " ling": 3772,
      " silently": 3773,
      " eager": 3774,
      " glasses": 3775,
      " apolog": 3776,
      " beth": 3777,
      " langu": 3778,
      " occur": 3779,
      " bank": 3780,
      " leading": 3781,
      " drawn": 3782,
      " indeed": 3783,
      " charge": 3784,
      "suddenly": 3785,
      " amount": 3786,
      " lack": 3787,
      " prin": 3788,
      "lets": 3789,
      "ceed": 3790,
      " row": 3791,
      " meaning": 3792,
      " names": 3793,
      " pause": 3794,
      "sm": 3795,
      "itement": 3796,
      " origin": 3797,
      " ye": 3798,
      " exh": 3799,
      " bree": 3800,
      " introd": 3801,
      " wand": 3802,
      " relie": 3803,
      " hurry": 3804,
      " aid": 3805,
      " slip": 3806,
      " glared": 3807,
      " jew": 3808,
      "itary": 3809,
      " ancient": 3810,
      " nature": 3811,
      " movie": 3812,
      " younger": 3813,
      " inch": 3814,
      " streets": 3815,
      " leap": 3816,
      "eless": 3817,
      " zane": 3818,
      " common": 3819,
      " rand": 3820,
      " sac": 3821,
      " rooms": 3822,
      "however": 3823,
      "ique": 3824,
      "col": 3825,
      "ires": 3826,
      "both": 3827,
      " grate": 3828,
      "aches": 3829,
      "kin": 3830,
      "po": 3831,
      "iment": 3832,
      " natural": 3833,
      " heels": 3834,
      " steel": 3835,
      " insp": 3836,
      " ky": 3837,
      " tur": 3838,
      "keep": 3839,
      " fal": 3840,
      " ghost": 3841,
      " rout": 3842,
      " problems": 3843,
      " york": 3844,
      " assist": 3845,
      " cave": 3846,
      "lor": 3847,
      " lightly": 3848,
      " details": 3849,
      " tort": 3850,
      " chat": 3851,
      "don": 3852,
      " pointing": 3853,
      " holl": 3854,
      " conc": 3855,
      " drinking": 3856,
      " emma": 3857,
      "ille": 3858,
      " blame": 3859,
      " witch": 3860,
      " intim": 3861,
      " physical": 3862,
      " relaxed": 3863,
      "bye": 3864,
      " enemy": 3865,
      " rub": 3866,
      " waves": 3867,
      " aband": 3868,
      " garden": 3869,
      " ren": 3870,
      " rolling": 3871,
      "again": 3872,
      " jim": 3873,
      " loss": 3874,
      " passing": 3875,
      " mod": 3876,
      "alous": 3877,
      " bul": 3878,
      " experien": 3879,
      "ication": 3880,
      " host": 3881,
      "dr": 3882,
      " keys": 3883,
      " chick": 3884,
      " scra": 3885,
      " disg": 3886,
      " members": 3887,
      "ese": 3888,
      " sarah": 3889,
      "ilities": 3890,
      " blanket": 3891,
      " eld": 3892,
      "gress": 3893,
      " rise": 3894,
      " prev": 3895,
      " match": 3896,
      " safety": 3897,
      " horror": 3898,
      " hous": 3899,
      " badly": 3900,
      " written": 3901,
      " pressure": 3902,
      " rested": 3903,
      " ian": 3904,
      " weekend": 3905,
      " ability": 3906,
      "lfriend": 3907,
      " incre": 3908,
      " orders": 3909,
      " kisses": 3910,
      " veh": 3911,
      " resist": 3912,
      " belt": 3913,
      "rop": 3914,
      " features": 3915,
      " block": 3916,
      " drawing": 3917,
      "af": 3918,
      " thighs": 3919,
      " rage": 3920,
      "abeth": 3921,
      " voices": 3922,
      "ki": 3923,
      " rear": 3924,
      " target": 3925,
      " americ": 3926,
      " stronger": 3927,
      "-he": 3928,
      "uh": 3929,
      " elevator": 3930,
      " corrid": 3931,
      " ignore": 3932,
      "gram": 3933,
      "bastian": 3934,
      " mate": 3935,
      " cole": 3936,
      " fab": 3937,
      " fac": 3938,
      " officer": 3939,
      "-g": 3940,
      " failed": 3941,
      "hol": 3942,
      "ka": 3943,
      " henry": 3944,
      " tan": 3945,
      " plenty": 3946,
      " pissed": 3947,
      " tv": 3948,
      " stars": 3949,
      " dozen": 3950,
      " witness": 3951,
      " sliding": 3952,
      "iant": 3953,
      " council": 3954,
      " feed": 3955,
      " swept": 3956,
      "har": 3957,
      " plane": 3958,
      "oph": 3959,
      " gall": 3960,
      " confir": 3961,
      " psych": 3962,
      " hint": 3963,
      "sometimes": 3964,
      " tied": 3965,
      " fifty": 3966,
      " curious": 3967,
      " wis": 3968,
      "ora": 3969,
      " poured": 3970,
      "erial": 3971,
      " thor": 3972,
      " firmly": 3973,
      " porch": 3974,
      "mom": 3975,
      " manage": 3976,
      " skirt": 3977,
      " temper": 3978,
      " tucked": 3979,
      "people": 3980,
      " smelled": 3981,
      " becoming": 3982,
      " deck": 3983,
      "uries": 3984,
      " pred": 3985,
      " named": 3986,
      " evidence": 3987,
      "elve": 3988,
      "vis": 3989,
      " intern": 3990,
      " shift": 3991,
      "damn": 3992,
      " tail": 3993,
      " tran": 3994,
      " commun": 3995,
      " closing": 3996,
      "aging": 3997,
      " mission": 3998,
      "olves": 3999,
      " english": 4000,
      "pes": 4001,
      "neath": 4002,
      " starts": 4003,
      "aine": 4004,
      " depart": 4005,
      " organ": 4006,
      " honor": 4007,
      "'you": 4008,
      " enter": 4009,
      "vering": 4010,
      " throwing": 4011,
      " fol": 4012,
      " fish": 4013,
      "-y": 4014,
      " account": 4015,
      " village": 4016,
      " nowhere": 4017,
      " seth": 4018,
      " compan": 4019,
      " ly": 4020,
      " cared": 4021,
      " setting": 4022,
      " million": 4023,
      "erson": 4024,
      " bigger": 4025,
      "ival": 4026,
      " prove": 4027,
      "uit": 4028,
      " hello": 4029,
      " tang": 4030,
      " flick": 4031,
      " correct": 4032,
      "ov": 4033,
      " release": 4034,
      "ante": 4035,
      "__": 4036,
      " sed": 4037,
      " sell": 4038,
      "ira": 4039,
      " works": 4040,
      "sey": 4041,
      "sec": 4042,
      " pace": 4043,
      "ette": 4044,
      " higher": 4045,
      "dding": 4046,
      "ples": 4047,
      " planning": 4048,
      " widened": 4049,
      " faced": 4050,
      " scow": 4051,
      " gripped": 4052,
      " dun": 4053,
      " sque": 4054,
      "ibr": 4055,
      " ank": 4056,
      " flames": 4057,
      " rot": 4058,
      " cous": 4059,
      " massive": 4060,
      "hey": 4061,
      " tower": 4062,
      "mare": 4063,
      "sor": 4064,
      " health": 4065,
      " terror": 4066,
      "ature": 4067,
      "mr.": 4068,
      " ripped": 4069,
      " joe": 4070,
      " prec": 4071,
      " east": 4072,
      " lets": 4073,
      "rog": 4074,
      " ger": 4075,
      " material": 4076,
      " nobody": 4077,
      "iction": 4078,
      " dawn": 4079,
      "izabeth": 4080,
      " fant": 4081,
      "ality": 4082,
      " planet": 4083,
      " sin": 4084,
      " luke": 4085,
      " deb": 4086,
      "view": 4087,
      " stab": 4088,
      "aper": 4089,
      " purse": 4090,
      " upstairs": 4091,
      " irrit": 4092,
      " cy": 4093,
      " simon": 4094,
      " ridicul": 4095,
      " papers": 4096,
      " french": 4097,
      " similar": 4098,
      " reasons": 4099,
      " mc": 4100,
      " pressing": 4101,
      " parked": 4102,
      " twist": 4103,
      " enjoyed": 4104,
      " insisted": 4105,
      " flood": 4106,
      " castle": 4107,
      " extreme": 4108,
      " spoken": 4109,
      " logan": 4110,
      "inary": 4111,
      "icing": 4112,
      " theres": 4113,
      " whom": 4114,
      " machine": 4115,
      "ization": 4116,
      "iley": 4117,
      " survive": 4118,
      " passion": 4119,
      " slide": 4120,
      " clock": 4121,
      "iana": 4122,
      " flowers": 4123,
      " marriage": 4124,
      " oce": 4125,
      " buzz": 4126,
      " swim": 4127,
      " huh": 4128,
      " heavily": 4129,
      " lovely": 4130,
      "je": 4131,
      " urge": 4132,
      " powers": 4133,
      "oe": 4134,
      " library": 4135,
      " monster": 4136,
      " creep": 4137,
      " nights": 4138,
      "riel": 4139,
      " vac": 4140,
      " abrupt": 4141,
      " liqu": 4142,
      " page": 4143,
      " blew": 4144,
      " stair": 4145,
      " facing": 4146,
      " plastic": 4147,
      " warned": 4148,
      " snar": 4149,
      " choose": 4150,
      " winter": 4151,
      " disp": 4152,
      " upper": 4153,
      " adjust": 4154,
      "**sts": 4155,
      " tunnel": 4156,
      " spar": 4157,
      " project": 4158,
      " guilt": 4159,
      " bitter": 4160,
      " backed": 4161,
      " briefly": 4162,
      " log": 4163,
      "ocol": 4164,
      " br**sts": 4165,
      " parts": 4166,
      " camera": 4167,
      " gorge": 4168,
      " fed": 4169,
      "ounce": 4170,
      "rett": 4171,
      " doc": 4172,
      " cream": 4173,
      " ate": 4174,
      "ify": 4175,
      " vibr": 4176,
      " radio": 4177,
      " satisf": 4178,
      " decl": 4179,
      "-e": 4180,
      " handsome": 4181,
      "iber": 4182,
      "-co": 4183,
      "angs": 4184,
      " plain": 4185,
      "isto": 4186,
      "acks": 4187,
      "asure": 4188,
      " jealous": 4189,
      " brush": 4190,
      "too": 4191,
      "antage": 4192,
      "aning": 4193,
      " race": 4194,
      " grave": 4195,
      " twelve": 4196,
      "iently": 4197,
      " sank": 4198,
      " inches": 4199,
      " leader": 4200,
      " ken": 4201,
      "idding": 4202,
      " di": 4203,
      "inated": 4204,
      " merely": 4205,
      " rules": 4206,
      "raw": 4207,
      "rek": 4208,
      " sniff": 4209,
      "book": 4210,
      " cash": 4211,
      " bay": 4212,
      " knight": 4213,
      " write": 4214,
      " forty": 4215,
      " relieved": 4216,
      " anticip": 4217,
      "exp": 4218,
      " tension": 4219,
      "whel": 4220,
      "loy": 4221,
      "got": 4222,
      " demons": 4223,
      " dancing": 4224,
      " innocent": 4225,
      " rif": 4226,
      " swir": 4227,
      " cloud": 4228,
      " froze": 4229,
      " tells": 4230,
      " princess": 4231,
      " assumed": 4232,
      " victim": 4233,
      "vision": 4234,
      " thomas": 4235,
      " embr": 4236,
      "apping": 4237,
      "ino": 4238,
      "nick": 4239,
      " split": 4240,
      " stumbled": 4241,
      "about": 4242,
      " crap": 4243,
      " claire": 4244,
      "war": 4245,
      " tit": 4246,
      " thrown": 4247,
      " guns": 4248,
      " address": 4249,
      " grad": 4250,
      " silk": 4251,
      " horrible": 4252,
      " reass": 4253,
      " daniel": 4254,
      "rey": 4255,
      " pounding": 4256,
      "ndon": 4257,
      " nods": 4258,
      "umps": 4259,
      " flipped": 4260,
      "sue": 4261,
      " created": 4262,
      " ok": 4263,
      " pil": 4264,
      " teen": 4265,
      "claimed": 4266,
      " closet": 4267,
      " shes": 4268,
      " frame": 4269,
      " lungs": 4270,
      " farm": 4271,
      "ference": 4272,
      " develo": 4273,
      " rail": 4274,
      "acle": 4275,
      " teacher": 4276,
      "dad": 4277,
      " cryst": 4278,
      " fixed": 4279,
      " yard": 4280,
      " charlie": 4281,
      "ointment": 4282,
      "onscious": 4283,
      " idiot": 4284,
      " unif": 4285,
      " cart": 4286,
      " collap": 4287,
      " writing": 4288,
      " intell": 4289,
      "thanks": 4290,
      " overwhel": 4291,
      " stands": 4292,
      " fists": 4293,
      "idly": 4294,
      " hugged": 4295,
      " ni": 4296,
      " glare": 4297,
      " ease": 4298,
      "han": 4299,
      "blood": 4300,
      "ashion": 4301,
      " access": 4302,
      " cigaret": 4303,
      " spine": 4304,
      "whats": 4305,
      " pile": 4306,
      " william": 4307,
      " kate": 4308,
      " swift": 4309,
      " tex": 4310,
      "enger": 4311,
      " bone": 4312,
      " ward": 4313,
      " hood": 4314,
      " eric": 4315,
      " meal": 4316,
      " pregnant": 4317,
      " soot": 4318,
      " loudly": 4319,
      " events": 4320,
      " towel": 4321,
      "attoo": 4322,
      " military": 4323,
      " um": 4324,
      " cheer": 4325,
      "elled": 4326,
      "-n": 4327,
      " animals": 4328,
      " destroy": 4329,
      " ocean": 4330,
      " resc": 4331,
      " beating": 4332,
      " map": 4333,
      "walk": 4334,
      "tending": 4335,
      " lone": 4336,
      " grateful": 4337,
      " startled": 4338,
      " stopping": 4339,
      "ben": 4340,
      " taught": 4341,
      " tilted": 4342,
      " ale": 4343,
      "mel": 4344,
      " resting": 4345,
      "gest": 4346,
      " temple": 4347,
      " spring": 4348,
      "phone": 4349,
      " utter": 4350,
      "lebr": 4351,
      " custom": 4352,
      " faith": 4353,
      " accepted": 4354,
      " shiver": 4355,
      "omes": 4356,
      " fired": 4357,
      "aks": 4358,
      " delight": 4359,
      " damp": 4360,
      " activ": 4361,
      " fierce": 4362,
      "hal": 4363,
      " elbow": 4364,
      "ppy": 4365,
      "essor": 4366,
      " distant": 4367,
      " dug": 4368,
      "pless": 4369,
      " awful": 4370,
      " tender": 4371,
      "does": 4372,
      " strang": 4373,
      " ven": 4374,
      "nds": 4375,
      " height": 4376,
      "ran": 4377,
      " tugged": 4378,
      " damage": 4379,
      " freed": 4380,
      "looking": 4381,
      " torn": 4382,
      " painting": 4383,
      " hip": 4384,
      " suck": 4385,
      "asha": 4386,
      " bird": 4387,
      "lot": 4388,
      " bon": 4389,
      " corridor": 4390,
      " tattoo": 4391,
      " language": 4392,
      " agent": 4393,
      " kell": 4394,
      " clothing": 4395,
      " practice": 4396,
      "ential": 4397,
      "john": 4398,
      " distur": 4399,
      " pretend": 4400,
      "jen": 4401,
      " furn": 4402,
      "ram": 4403,
      "turn": 4404,
      "eral": 4405,
      " pour": 4406,
      " dread": 4407,
      " shakes": 4408,
      " cracked": 4409,
      " orange": 4410,
      " joke": 4411,
      " harsh": 4412,
      " chose": 4413,
      " meat": 4414,
      "fit": 4415,
      "real": 4416,
      " rust": 4417,
      " celebr": 4418,
      "cell": 4419,
      " guil": 4420,
      " une": 4421,
      " chain": 4422,
      " jamie": 4423,
      " pillow": 4424,
      " stranger": 4425,
      "eech": 4426,
      " skull": 4427,
      " clouds": 4428,
      "essa": 4429,
      " searched": 4430,
      " gorgeous": 4431,
      " peered": 4432,
      " spotted": 4433,
      "-like": 4434,
      " warrior": 4435,
      " flut": 4436,
      " lily": 4437,
      " intended": 4438,
      " picking": 4439,
      " surely": 4440,
      " ting": 4441,
      " waste": 4442,
      " chill": 4443,
      " wash": 4444,
      " weather": 4445,
      " chairs": 4446,
      " heal": 4447,
      " escaped": 4448,
      "loe": 4449,
      "theres": 4450,
      "ointed": 4451,
      "coming": 4452,
      " crim": 4453,
      "bet": 4454,
      " tie": 4455,
      " ack": 4456,
      "osen": 4457,
      " received": 4458,
      " pip": 4459,
      "iven": 4460,
      "itions": 4461,
      " causing": 4462,
      " damned": 4463,
      " rocks": 4464,
      " jeff": 4465,
      " birthday": 4466,
      " chris": 4467,
      " whir": 4468,
      " cred": 4469,
      " cha": 4470,
      " breeze": 4471,
      " ryan": 4472,
      " acting": 4473,
      " frozen": 4474,
      "pan": 4475,
      "jam": 4476,
      " jac": 4477,
      " killer": 4478,
      " phil": 4479,
      " ug": 4480,
      "cass": 4481,
      " popped": 4482,
      " tore": 4483,
      " charac": 4484,
      " smaller": 4485,
      "take": 4486,
      " settle": 4487,
      " begun": 4488,
      " polit": 4489,
      " worn": 4490,
      " regular": 4491,
      " various": 4492,
      " guilty": 4493,
      "ption": 4494,
      " climb": 4495,
      " josh": 4496,
      " transp": 4497,
      "ulation": 4498,
      "ato": 4499,
      " suspic": 4500,
      "ales": 4501,
      " fate": 4502,
      " attacked": 4503,
      "kered": 4504,
      " cro": 4505,
      " hamm": 4506,
      " fan": 4507,
      " crou": 4508,
      " assured": 4509,
      " palms": 4510,
      " soldier": 4511,
      " secrets": 4512,
      "ases": 4513,
      " hissed": 4514,
      "umed": 4515,
      "ences": 4516,
      "gers": 4517,
      " due": 4518,
      "each": 4519,
      "place": 4520,
      " rubbing": 4521,
      " gesture": 4522,
      "ators": 4523,
      " whenever": 4524,
      " puzz": 4525,
      " enjoying": 4526,
      " walks": 4527,
      " chosen": 4528,
      " drifted": 4529,
      " ray": 4530,
      "ores": 4531,
      " reluct": 4532,
      " partner": 4533,
      "ults": 4534,
      " besides": 4535,
      "athy": 4536,
      " sisters": 4537,
      " fury": 4538,
      " brit": 4539,
      " gy": 4540,
      "icularly": 4541,
      " yanked": 4542,
      " pulse": 4543,
      " desce": 4544,
      " capable": 4545,
      " bunch": 4546,
      "itation": 4547,
      " chamber": 4548,
      "amped": 4549,
      " notes": 4550,
      " hero": 4551,
      "ita": 4552,
      " american": 4553,
      " sake": 4554,
      "ems": 4555,
      "tw": 4556,
      " civ": 4557,
      " explan": 4558,
      " sensed": 4559,
      " rib": 4560,
      "rif": 4561,
      " caress": 4562,
      " display": 4563,
      " muscle": 4564,
      " bags": 4565,
      " prim": 4566,
      "despite": 4567,
      " egg": 4568,
      " sip": 4569,
      "ddy": 4570,
      "steps": 4571,
      "vor": 4572,
      " rode": 4573,
      " vers": 4574,
      " balance": 4575,
      " farther": 4576,
      "met": 4577,
      "oted": 4578,
      " painful": 4579,
      "gency": 4580,
      " noah": 4581,
      " program": 4582,
      " dick": 4583,
      " bri": 4584,
      " chew": 4585,
      " duty": 4586,
      "oop": 4587,
      " intent": 4588,
      " depe": 4589,
      "ago": 4590,
      " photog": 4591,
      " discuss": 4592,
      "ye": 4593,
      " circum": 4594,
      "boy": 4595,
      " landing": 4596,
      "aker": 4597,
      "ivid": 4598,
      "lored": 4599,
      " snat": 4600,
      " won": 4601,
      " london": 4602,
      " judge": 4603,
      " alarm": 4604,
      " nurse": 4605,
      "ording": 4606,
      " students": 4607,
      " gazed": 4608,
      "riff": 4609,
      "iest": 4610,
      "umping": 4611,
      "ache": 4612,
      " houses": 4613,
      " pride": 4614,
      "first": 4615,
      "sil": 4616,
      " detail": 4617,
      " react": 4618,
      " larger": 4619,
      " formed": 4620,
      " cale": 4621,
      " concl": 4622,
      " brows": 4623,
      " uniform": 4624,
      " snorted": 4625,
      "awk": 4626,
      " dropping": 4627,
      "uses": 4628,
      "really": 4629,
      "barrassed": 4630,
      "ado": 4631,
      "asty": 4632,
      " licked": 4633,
      " reb": 4634,
      "ulf": 4635,
      " disgust": 4636,
      " trapped": 4637,
      " covering": 4638,
      "fuck": 4639,
      " curse": 4640,
      " garage": 4641,
      " suspect": 4642,
      " signs": 4643,
      " echoed": 4644,
      " lied": 4645,
      " cute": 4646,
      "ception": 4647,
      "emon": 4648,
      " shr": 4649,
      " arched": 4650,
      " nav": 4651,
      " envelo": 4652,
      " bullet": 4653,
      " acknow": 4654,
      " george": 4655,
      " fingert": 4656,
      " arrow": 4657,
      "mission": 4658,
      " points": 4659,
      " glowing": 4660,
      " approach": 4661,
      "bre": 4662,
      " raced": 4663,
      " deserve": 4664,
      "-five": 4665,
      " sofa": 4666,
      "azed": 4667,
      " bry": 4668,
      " rule": 4669,
      " jan": 4670,
      "ishment": 4671,
      " sweep": 4672,
      " stunned": 4673,
      " vanished": 4674,
      "sar": 4675,
      " brill": 4676,
      " sus": 4677,
      " daddy": 4678,
      "umble": 4679,
      " forgive": 4680,
      " liz": 4681,
      " ladies": 4682,
      " washed": 4683,
      " mask": 4684,
      " bowl": 4685,
      " chief": 4686,
      " mental": 4687,
      " impat": 4688,
      " raise": 4689,
      "ule": 4690,
      " shooting": 4691,
      "iolet": 4692,
      "cr": 4693,
      "-looking": 4694,
      " neighbor": 4695,
      " ram": 4696,
      " collar": 4697,
      " encou": 4698,
      " retreat": 4699,
      " beck": 4700,
      " moves": 4701,
      " holds": 4702,
      " matters": 4703,
      " attend": 4704,
      "imm": 4705,
      " emily": 4706,
      " tables": 4707,
      " mumbled": 4708,
      "sa": 4709,
      "sorry": 4710,
      "tles": 4711,
      " task": 4712,
      " brick": 4713,
      " sheet": 4714,
      " dogs": 4715,
      " hunt": 4716,
      " ugly": 4717,
      " alley": 4718,
      " exit": 4719,
      "ffic": 4720,
      " numbers": 4721,
      " convince": 4722,
      " journey": 4723,
      " inner": 4724,
      " rip": 4725,
      " purple": 4726,
      " bench": 4727,
      " likes": 4728,
      "uts": 4729,
      "mark": 4730,
      "-ey": 4731,
      " cutting": 4732,
      " chocol": 4733,
      "nor": 4734,
      " occup": 4735,
      " eve": 4736,
      " blast": 4737,
      " tense": 4738,
      " contem": 4739,
      "mor": 4740,
      "ads": 4741,
      "wards": 4742,
      " loving": 4743,
      "expected": 4744,
      "bur": 4745,
      "istic": 4746,
      "iance": 4747,
      "three": 4748,
      " opin": 4749,
      "ole": 4750,
      " filling": 4751,
      "lord": 4752,
      " rhy": 4753,
      "otic": 4754,
      "ency": 4755,
      " unlike": 4756,
      " blonde": 4757,
      " frag": 4758,
      " somebody": 4759,
      " gestured": 4760,
      " whit": 4761,
      " abruptly": 4762,
      " tapped": 4763,
      "heart": 4764,
      " init": 4765,
      "erie": 4766,
      " lucas": 4767,
      "anth": 4768,
      "sal": 4769,
      "vet": 4770,
      "aud": 4771,
      " price": 4772,
      " cel": 4773,
      " insane": 4774,
      "aves": 4775,
      " intellig": 4776,
      " plat": 4777,
      " nin": 4778,
      "mat": 4779,
      " shell": 4780,
      "taking": 4781,
      " rope": 4782,
      " greg": 4783,
      " rat": 4784,
      " whispers": 4785,
      " total": 4786,
      " vide": 4787,
      " shame": 4788,
      "lotte": 4789,
      "avin": 4790,
      "aky": 4791,
      " distr": 4792,
      " slapped": 4793,
      "ste": 4794,
      "sim": 4795,
      "aze": 4796,
      " julian": 4797,
      " lies": 4798,
      " checking": 4799,
      "iring": 4800,
      " stal": 4801,
      "bbled": 4802,
      " served": 4803,
      " changing": 4804,
      "wen": 4805,
      " manner": 4806,
      " nap": 4807,
      " sway": 4808,
      " games": 4809,
      "eter": 4810,
      "until": 4811,
      " jared": 4812,
      " domin": 4813,
      " ber": 4814,
      "unched": 4815,
      " holy": 4816,
      " file": 4817,
      " wrote": 4818,
      " drown": 4819,
      "bble": 4820,
      " butter": 4821,
      " electric": 4822,
      " alco": 4823,
      " fabric": 4824,
      "except": 4825,
      "urs": 4826,
      " kar": 4827,
      "emma": 4828,
      " argue": 4829,
      " guessed": 4830,
      "ints": 4831,
      " paying": 4832,
      " oliv": 4833,
      " cousin": 4834,
      " eased": 4835,
      " grabbing": 4836,
      " senses": 4837,
      " keeps": 4838,
      "beat": 4839,
      "andra": 4840,
      " protest": 4841,
      " nic": 4842,
      " devil": 4843,
      " poison": 4844,
      " speech": 4845,
      " balls": 4846,
      "-or": 4847,
      " appl": 4848,
      " vehicle": 4849,
      " loves": 4850,
      " tray": 4851,
      " hal": 4852,
      " helpless": 4853,
      " lots": 4854,
      " social": 4855,
      " riding": 4856,
      " ai": 4857,
      " pattern": 4858,
      " enorm": 4859,
      "log": 4860,
      " drank": 4861,
      " sharply": 4862,
      " honestly": 4863,
      "agon": 4864,
      " ivy": 4865,
      "-one": 4866,
      " decor": 4867,
      "-year": 4868,
      " raw": 4869,
      " org": 4870,
      " flin": 4871,
      " source": 4872,
      " satur": 4873,
      " sooner": 4874,
      "-old": 4875,
      " shade": 4876,
      " etern": 4877,
      " richard": 4878,
      " lur": 4879,
      " punch": 4880,
      " jane": 4881,
      " driveway": 4882,
      " wes": 4883,
      "none": 4884,
      "cast": 4885,
      " occurred": 4886,
      " afford": 4887,
      "asket": 4888,
      " dining": 4889,
      "-bl": 4890,
      " sched": 4891,
      "ordan": 4892,
      " boo": 4893,
      " stroked": 4894,
      "illing": 4895,
      " silly": 4896,
      " closely": 4897,
      " glancing": 4898,
      " youve": 4899,
      " recently": 4900,
      " symp": 4901,
      " circumst": 4902,
      " bran": 4903,
      " member": 4904,
      " wil": 4905,
      " jesus": 4906,
      " strike": 4907,
      "van": 4908,
      " havent": 4909,
      " blake": 4910,
      " neat": 4911,
      " vul": 4912,
      " fellow": 4913,
      "icles": 4914,
      " clearing": 4915,
      " o'": 4916,
      " patted": 4917,
      " lined": 4918,
      " hitting": 4919,
      "jon": 4920,
      " vel": 4921,
      "ffe": 4922,
      " tough": 4923,
      ".m": 4924,
      " catching": 4925,
      " rick": 4926,
      " dismiss": 4927,
      " drug": 4928,
      " palace": 4929,
      "dge": 4930,
      "iverse": 4931,
      " replaced": 4932,
      " net": 4933,
      " theyre": 4934,
      " olivia": 4935,
      " bothered": 4936,
      " eyed": 4937,
      "soon": 4938,
      " arrange": 4939,
      " dumb": 4940,
      "vi": 4941,
      " neare": 4942,
      " ted": 4943,
      "ugg": 4944,
      " lifting": 4945,
      " perio": 4946,
      " liquid": 4947,
      " letters": 4948,
      " clos": 4949,
      "gun": 4950,
      " slowed": 4951,
      "jake": 4952,
      " wrap": 4953,
      "atherine": 4954,
      "ruction": 4955,
      " attract": 4956,
      " assume": 4957,
      " haul": 4958,
      " marsh": 4959,
      " shrie": 4960,
      " plant": 4961,
      " cursed": 4962,
      " louder": 4963,
      " dollars": 4964,
      " thunder": 4965,
      " desp": 4966,
      "atically": 4967,
      " location": 4968,
      "fire": 4969,
      " toes": 4970,
      " lust": 4971,
      " series": 4972,
      " gasp": 4973,
      " hunting": 4974,
      " halfway": 4975,
      " univers": 4976,
      "otted": 4977,
      " seeming": 4978,
      "rier": 4979,
      " behav": 4980,
      "bal": 4981,
      " research": 4982,
      " contr": 4983,
      " vague": 4984,
      " design": 4985,
      " clay": 4986,
      "chan": 4987,
      " blink": 4988,
      "ients": 4989,
      " copy": 4990,
      " acqu": 4991,
      "hawk": 4992,
      "rer": 4993,
      " sunlight": 4994,
      "ctions": 4995,
      "aping": 4996,
      " traffic": 4997,
      "yl": 4998,
      " reser": 4999,
      " bread": 5000,
      " moaned": 5001,
      " cops": 5002,
      " dull": 5003,
      "inger": 5004,
      "inkled": 5005,
      " intens": 5006,
      " anna": 5007,
      " trained": 5008,
      "fall": 5009,
      " somewhat": 5010,
      " crime": 5011,
      " invis": 5012,
      " trace": 5013,
      " clue": 5014,
      " falls": 5015,
      " royal": 5016,
      " mult": 5017,
      " conce": 5018,
      "pack": 5019,
      " previous": 5020,
      " inqu": 5021,
      "uine": 5022,
      " friendly": 5023,
      " avail": 5024,
      "ulated": 5025,
      " forcing": 5026,
      " eyel": 5027,
      " impress": 5028,
      "anges": 5029,
      " packed": 5030,
      " dang": 5031,
      " pleasant": 5032,
      " casual": 5033,
      " grasp": 5034,
      "lies": 5035,
      " techn": 5036,
      " wink": 5037,
      "kat": 5038,
      "lit": 5039,
      "uction": 5040,
      " cloth": 5041,
      " carol": 5042,
      " possess": 5043,
      "wolf": 5044,
      " washing": 5045,
      "pre": 5046,
      " enth": 5047,
      " noted": 5048,
      " trusted": 5049,
      "od": 5050,
      " unw": 5051,
      " kidding": 5052,
      " former": 5053,
      " paint": 5054,
      " whist": 5055,
      " ignoring": 5056,
      "call": 5057,
      " autom": 5058,
      " stepping": 5059,
      " unlo": 5060,
      " pisto": 5061,
      "ethan": 5062,
      " ske": 5063,
      " scramb": 5064,
      " unus": 5065,
      " gal": 5066,
      " cher": 5067,
      " squeeze": 5068,
      " grinning": 5069,
      " fence": 5070,
      " stops": 5071,
      " snap": 5072,
      " trailed": 5073,
      " racing": 5074,
      " normally": 5075,
      " sounding": 5076,
      " whats": 5077,
      " fangs": 5078,
      " section": 5079,
      " werent": 5080,
      " images": 5081,
      " teach": 5082,
      " caut": 5083,
      "aren": 5084,
      " pockets": 5085,
      " stor": 5086,
      " ali": 5087,
      " bored": 5088,
      "jected": 5089,
      " nate": 5090,
      " disbel": 5091,
      " crystal": 5092,
      " laughs": 5093,
      " drinks": 5094,
      " trent": 5095,
      " nails": 5096,
      " tony": 5097,
      " veins": 5098,
      " strode": 5099,
      "vation": 5100,
      "erc": 5101,
      "rolled": 5102,
      " yards": 5103,
      "ended": 5104,
      "remy": 5105,
      " cliff": 5106,
      " youll": 5107,
      "ona": 5108,
      " bleeding": 5109,
      " mas": 5110,
      "inda": 5111,
      " isab": 5112,
      " lex": 5113,
      " recall": 5114,
      " property": 5115,
      " fasc": 5116,
      " prevent": 5117,
      " panties": 5118,
      " attached": 5119,
      " fashion": 5120,
      "eled": 5121,
      " drum": 5122,
      " comfor": 5123,
      " shrug": 5124,
      "ta": 5125,
      " brad": 5126,
      " painted": 5127,
      " extended": 5128,
      " runs": 5129,
      " cassie": 5130,
      "being": 5131,
      "-it": 5132,
      " jace": 5133,
      " half-": 5134,
      " teasing": 5135,
      " clas": 5136,
      " bord": 5137,
      " humor": 5138,
      " bond": 5139,
      " issue": 5140,
      " carpet": 5141,
      " fake": 5142,
      " sexual": 5143,
      " sees": 5144,
      "-ha": 5145,
      " arrest": 5146,
      " sheets": 5147,
      "rete": 5148,
      "amps": 5149,
      " bowed": 5150,
      " sacrif": 5151,
      " genuine": 5152,
      " covers": 5153,
      " amused": 5154,
      "iosity": 5155,
      "lights": 5156,
      " studying": 5157,
      " contain": 5158,
      "hun": 5159,
      "isy": 5160,
      " ess": 5161,
      " tank": 5162,
      "pa": 5163,
      "****": 5164,
      " code": 5165,
      " gown": 5166,
      "nal": 5167,
      " vall": 5168,
      " offering": 5169,
      " rifle": 5170,
      " diss": 5171,
      "ij": 5172,
      " restr": 5173,
      " parted": 5174,
      " exposed": 5175,
      "-of": 5176,
      " universe": 5177,
      "eds": 5178,
      " liter": 5179,
      "zane": 5180,
      "ero": 5181,
      " compet": 5182,
      "mist": 5183,
      " constant": 5184,
      "tor": 5185,
      " wicked": 5186,
      " belonged": 5187,
      "stand": 5188,
      " desert": 5189,
      "gger": 5190,
      " original": 5191,
      " sid": 5192,
      "ali": 5193,
      " rever": 5194,
      " feared": 5195,
      "olas": 5196,
      "sters": 5197,
      " ere": 5198,
      "gra": 5199,
      " enormous": 5200,
      "atively": 5201,
      " medical": 5202,
      " deserved": 5203,
      " withd": 5204,
      "wait": 5205,
      " liam": 5206,
      "hetic": 5207,
      "'it": 5208,
      " employ": 5209,
      " tub": 5210,
      " sem": 5211,
      " clar": 5212,
      " ships": 5213,
      "slow": 5214,
      "known": 5215,
      " swallow": 5216,
      "probably": 5217,
      " robe": 5218,
      "run": 5219,
      " ends": 5220,
      " claws": 5221,
      " nipp": 5222,
      " kylie": 5223,
      " saturday": 5224,
      " purch": 5225,
      " surve": 5226,
      " cruel": 5227,
      "give": 5228,
      " exec": 5229,
      " sole": 5230,
      " maint": 5231,
      " visible": 5232,
      " perform": 5233,
      " zomb": 5234,
      " derek": 5235,
      "reg": 5236,
      " shorts": 5237,
      " tend": 5238,
      " lee": 5239,
      "clock": 5240,
      " cage": 5241,
      "ila": 5242,
      "eline": 5243,
      " swing": 5244,
      " cot": 5245,
      " express": 5246,
      "rose": 5247,
      " diam": 5248,
      " shivered": 5249,
      "mad": 5250,
      " hast": 5251,
      "atory": 5252,
      " wing": 5253,
      " tap": 5254,
      " vulner": 5255,
      "istan": 5256,
      " photo": 5257,
      "mag": 5258,
      " tax": 5259,
      "ounted": 5260,
      " shining": 5261,
      " amuse": 5262,
      " shown": 5263,
      " accent": 5264,
      "oud": 5265,
      " murd": 5266,
      " squir": 5267,
      " stated": 5268,
      "uous": 5269,
      " ri": 5270,
      " horiz": 5271,
      " hook": 5272,
      " invited": 5273,
      "dar": 5274,
      "ifer": 5275,
      " flame": 5276,
      "bly": 5277,
      " rhyth": 5278,
      " advice": 5279,
      "try": 5280,
      " grief": 5281,
      "ford": 5282,
      " immort": 5283,
      " priest": 5284,
      " nik": 5285,
      " required": 5286,
      " wrists": 5287,
      "ya": 5288,
      " impl": 5289,
      " nerves": 5290,
      "orts": 5291,
      " midnight": 5292,
      " claimed": 5293,
      " shore": 5294,
      " loyal": 5295,
      "orter": 5296,
      "sequ": 5297,
      " scru": 5298,
      " shuff": 5299,
      " emerged": 5300,
      "earing": 5301,
      " actions": 5302,
      " nud": 5303,
      "hu": 5304,
      " civil": 5305,
      "dle": 5306,
      " nathan": 5307,
      " ep": 5308,
      "orting": 5309,
      "anches": 5310,
      " sunday": 5311,
      "-that": 5312,
      " shy": 5313,
      " dor": 5314,
      " delicate": 5315,
      " retrie": 5316,
      " alright": 5317,
      " mans": 5318,
      " allowing": 5319,
      " flicked": 5320,
      " eddie": 5321,
      " rig": 5322,
      " freedom": 5323,
      " serve": 5324,
      " warriors": 5325,
      " ache": 5326,
      "ament": 5327,
      " ron": 5328,
      " crawled": 5329,
      "mary": 5330,
      " video": 5331,
      " guests": 5332,
      " thread": 5333,
      " remark": 5334,
      "beth": 5335,
      " opinion": 5336,
      " exploded": 5337,
      " hurting": 5338,
      " complex": 5339,
      " assass": 5340,
      "ata": 5341,
      "gray": 5342,
      "ari": 5343,
      " spending": 5344,
      " scanned": 5345,
      " market": 5346,
      " haw": 5347,
      " seated": 5348,
      " ing": 5349,
      "ember": 5350,
      " whoever": 5351,
      " span": 5352,
      "field": 5353,
      " contract": 5354,
      " request": 5355,
      "gal": 5356,
      "inding": 5357,
      " hundreds": 5358,
      " stones": 5359,
      "thew": 5360,
      " scott": 5361,
      " dating": 5362,
      " revealed": 5363,
      " groan": 5364,
      " knelt": 5365,
      " barn": 5366,
      " choked": 5367,
      " passage": 5368,
      "ooped": 5369,
      " states": 5370,
      " actual": 5371,
      " champ": 5372,
      " precious": 5373,
      "ieve": 5374,
      "max": 5375,
      " mail": 5376,
      " trap": 5377,
      " jay": 5378,
      " der": 5379,
      " sean": 5380,
      " deliber": 5381,
      " vent": 5382,
      " period": 5383,
      "-eyed": 5384,
      " courage": 5385,
      "christ": 5386,
      "mike": 5387,
      " connor": 5388,
      "stop": 5389,
      "cra": 5390,
      " mortal": 5391,
      " jerk": 5392,
      " mia": 5393,
      " et": 5394,
      " abby": 5395,
      "put": 5396,
      " anybody": 5397,
      " wolves": 5398,
      " gran": 5399,
      " concrete": 5400,
      " bars": 5401,
      " mum": 5402,
      " wounds": 5403,
      " spare": 5404,
      " rushing": 5405,
      " society": 5406,
      " tracks": 5407,
      " grant": 5408,
      " sits": 5409,
      " motioned": 5410,
      "illa": 5411,
      " muff": 5412,
      " breaths": 5413,
      " rhythm": 5414,
      " andrew": 5415,
      " self-": 5416,
      "unfortun": 5417,
      "gue": 5418,
      " sheriff": 5419,
      "stone": 5420,
      " slipping": 5421,
      " robert": 5422,
      "down": 5423,
      " ze": 5424,
      " stubb": 5425,
      " sevent": 5426,
      "michael": 5427,
      "ickered": 5428,
      " sandw": 5429,
      " cris": 5430,
      " virgin": 5431,
      " depth": 5432,
      "gab": 5433,
      "ites": 5434,
      "asper": 5435,
      "many": 5436,
      " freak": 5437,
      " shopping": 5438,
      " birds": 5439,
      " marks": 5440,
      " troub": 5441,
      " cad": 5442,
      " bol": 5443,
      " progress": 5444,
      " flushed": 5445,
      "hh": 5446,
      " julia": 5447,
      "aph": 5448,
      " fairly": 5449,
      " cards": 5450,
      " scare": 5451,
      " rab": 5452,
      " friday": 5453,
      "iture": 5454,
      " official": 5455,
      " gear": 5456,
      "neither": 5457,
      " alcohol": 5458,
      " russ": 5459,
      " cooper": 5460,
      " dial": 5461,
      " core": 5462,
      " spinning": 5463,
      " stern": 5464,
      " tasted": 5465,
      "mate": 5466,
      " trunk": 5467,
      "-four": 5468,
      " mixed": 5469,
      "james": 5470,
      "hind": 5471,
      " informed": 5472,
      " stroll": 5473,
      " drugs": 5474,
      " drops": 5475,
      " magaz": 5476,
      " embrace": 5477,
      "imate": 5478,
      " beam": 5479,
      " deny": 5480,
      " remains": 5481,
      " goddam": 5482,
      " result": 5483,
      "world": 5484,
      " ras": 5485,
      " crash": 5486,
      " corners": 5487,
      " glances": 5488,
      " motor": 5489,
      " shouting": 5490,
      " mud": 5491,
      " bike": 5492,
      " teased": 5493,
      " betray": 5494,
      "reek": 5495,
      " digging": 5496,
      " quit": 5497,
      " boot": 5498,
      "olen": 5499,
      " symb": 5500,
      "things": 5501,
      " guest": 5502,
      " brave": 5503,
      "esome": 5504,
      " stall": 5505,
      " terms": 5506,
      " leans": 5507,
      " link": 5508,
      " spect": 5509,
      " screams": 5510,
      " option": 5511,
      " amy": 5512,
      " maid": 5513,
      " hunger": 5514,
      " ax": 5515,
      " smith": 5516,
      " reaches": 5517,
      " airport": 5518,
      " knocking": 5519,
      "standing": 5520,
      " credit": 5521,
      "-year-old": 5522,
      "gered": 5523,
      " wise": 5524,
      "usi": 5525,
      " ult": 5526,
      " secure": 5527,
      "andy": 5528,
      " coast": 5529,
      " milk": 5530,
      " nodding": 5531,
      " ribs": 5532,
      " beard": 5533,
      " overhead": 5534,
      " punched": 5535,
      " lover": 5536,
      " fog": 5537,
      " scient": 5538,
      " reveal": 5539,
      " glit": 5540,
      " scen": 5541,
      "jason": 5542,
      " behavior": 5543,
      " patient": 5544,
      " pec": 5545,
      " winked": 5546,
      " knuck": 5547,
      "icted": 5548,
      "ribut": 5549,
      " ideas": 5550,
      " cit": 5551,
      "vert": 5552,
      " chann": 5553,
      "part": 5554,
      " puff": 5555,
      "oms": 5556,
      " rapidly": 5557,
      " neighb": 5558,
      "len": 5559,
      "ability": 5560,
      " tighter": 5561,
      " accompl": 5562,
      " singing": 5563,
      " hid": 5564,
      " mall": 5565,
      "azz": 5566,
      " basket": 5567,
      " lace": 5568,
      " branches": 5569,
      " raising": 5570,
      " ms.": 5571,
      "-se": 5572,
      " create": 5573,
      " ais": 5574,
      " annoyed": 5575,
      "bi": 5576,
      " famil": 5577,
      "inal": 5578,
      "rich": 5579,
      " pages": 5580,
      " chloe": 5581,
      " seats": 5582,
      " begins": 5583,
      " survived": 5584,
      " trad": 5585,
      " colors": 5586,
      " moder": 5587,
      "rum": 5588,
      " stead": 5589,
      " jet": 5590,
      " saving": 5591,
      "ga": 5592,
      " symbol": 5593,
      " mile": 5594,
      "'what": 5595,
      "somehow": 5596,
      " struct": 5597,
      " gul": 5598,
      " chicken": 5599,
      " opens": 5600,
      " stubborn": 5601,
      "aron": 5602,
      " edges": 5603,
      "urally": 5604,
      " jun": 5605,
      " crept": 5606,
      " biggest": 5607,
      " vast": 5608,
      " waving": 5609,
      " boxes": 5610,
      " dragging": 5611,
      " holiday": 5612,
      " ratt": 5613,
      " diamond": 5614,
      " remote": 5615,
      " switch": 5616,
      " random": 5617,
      " handful": 5618,
      " paris": 5619,
      "essional": 5620,
      " clutched": 5621,
      " pistol": 5622,
      " serge": 5623,
      "tears": 5624,
      " jol": 5625,
      " proceed": 5626,
      " lately": 5627,
      "david": 5628,
      " brian": 5629,
      " blu": 5630,
      "anyway": 5631,
      "-so": 5632,
      " marked": 5633,
      "nate": 5634,
      "aying": 5635,
      " skills": 5636,
      " style": 5637,
      " steal": 5638,
      " dagger": 5639,
      " brushing": 5640,
      " impro": 5641,
      " circles": 5642,
      "should": 5643,
      "slowly": 5644,
      " morgan": 5645,
      "rison": 5646,
      " addition": 5647,
      " growl": 5648,
      "va": 5649,
      " riley": 5650,
      " bomb": 5651,
      " changes": 5652,
      "anne": 5653,
      " argument": 5654,
      "spect": 5655,
      " laz": 5656,
      " que": 5657,
      "rachel": 5658,
      " jose": 5659,
      "itar": 5660,
      " sidewalk": 5661,
      "win": 5662,
      " newsp": 5663,
      " lux": 5664,
      " elder": 5665,
      " refer": 5666,
      " gage": 5667,
      " sore": 5668,
      " minds": 5669,
      "oul": 5670,
      " dy": 5671,
      " eaten": 5672,
      " content": 5673,
      " arou": 5674,
      " grunted": 5675,
      " foolish": 5676,
      " version": 5677,
      " career": 5678,
      " commit": 5679,
      "lings": 5680,
      " expert": 5681,
      " winced": 5682,
      "nda": 5683,
      " insist": 5684,
      " appe": 5685,
      " equip": 5686,
      " whipped": 5687,
      "tery": 5688,
      " bart": 5689,
      "ika": 5690,
      " valley": 5691,
      "pat": 5692,
      " ja": 5693,
      " jail": 5694,
      " roar": 5695,
      "thy": 5696,
      "-haired": 5697,
      " treated": 5698,
      " cocked": 5699,
      " trade": 5700,
      " arrive": 5701,
      " calmly": 5702,
      " stretch": 5703,
      " exchange": 5704,
      " stock": 5705,
      " wre": 5706,
      " remove": 5707,
      " till": 5708,
      " habit": 5709,
      " marcus": 5710,
      " wren": 5711,
      " student": 5712,
      " anxious": 5713,
      " makeup": 5714,
      "elling": 5715,
      " arent": 5716,
      " excell": 5717,
      " puts": 5718,
      " sleeve": 5719,
      " throne": 5720,
      " harry": 5721,
      " ham": 5722,
      "mrs.": 5723,
      " moan": 5724,
      " dealing": 5725,
      " pow": 5726,
      "-out": 5727,
      "ok": 5728,
      "sarah": 5729,
      " danced": 5730,
      " alert": 5731,
      " upward": 5732,
      " spat": 5733,
      "urance": 5734,
      " precise": 5735,
      "encer": 5736,
      "oops": 5737,
      " wishing": 5738,
      "pri": 5739,
      " miser": 5740,
      " enthusi": 5741,
      "ulate": 5742,
      " unusual": 5743,
      " repres": 5744,
      " cupped": 5745,
      " enemies": 5746,
      " sara": 5747,
      "acted": 5748,
      " cord": 5749,
      " violet": 5750,
      " provided": 5751,
      " football": 5752,
      " eleven": 5753,
      " ripp": 5754,
      " theyd": 5755,
      " lawyer": 5756,
      " struggle": 5757,
      " quarter": 5758,
      " hay": 5759,
      "behind": 5760,
      " rent": 5761,
      " furious": 5762,
      "ville": 5763,
      " ducked": 5764,
      " families": 5765,
      " holly": 5766,
      " unfortun": 5767,
      " steve": 5768,
      " bob": 5769,
      " greeted": 5770,
      " raven": 5771,
      " defend": 5772,
      " wealth": 5773,
      "jess": 5774,
      " closest": 5775,
      " sneak": 5776,
      "cur": 5777,
      " gabriel": 5778,
      " individ": 5779,
      "long": 5780,
      "remember": 5781,
      "impse": 5782,
      "uch": 5783,
      " mattress": 5784,
      "izzy": 5785,
      " glimpse": 5786,
      "sie": 5787,
      " crown": 5788,
      "grace": 5789,
      " resol": 5790,
      " darling": 5791,
      " lobby": 5792,
      " upright": 5793,
      " nasty": 5794,
      " rescue": 5795,
      " stolen": 5796,
      " bust": 5797,
      "bell": 5798,
      "oning": 5799,
      "bro": 5800,
      " cloak": 5801,
      "tar": 5802,
      " obs": 5803,
      " goddess": 5804,
      "rin": 5805,
      " oil": 5806,
      "iles": 5807,
      "ano": 5808,
      " advent": 5809,
      "happ": 5810,
      "**k": 5811,
      " nearest": 5812,
      " illum": 5813,
      " c**k": 5814,
      " giggled": 5815,
      "elia": 5816,
      " drawer": 5817,
      "jes": 5818,
      " ruin": 5819,
      " gym": 5820,
      " defense": 5821,
      "umn": 5822,
      " wounded": 5823,
      " hollow": 5824,
      " learning": 5825,
      "logy": 5826,
      " crashed": 5827,
      "adam": 5828,
      " separate": 5829,
      " roared": 5830,
      "lying": 5831,
      " flow": 5832,
      " strip": 5833,
      " officers": 5834,
      "seth": 5835,
      " kim": 5836,
      " wan": 5837,
      " darted": 5838,
      " backpack": 5839,
      "lace": 5840,
      ".m.": 5841,
      " wiz": 5842,
      "clo": 5843,
      "seeing": 5844,
      " scri": 5845,
      " lucy": 5846,
      "nic": 5847,
      " floating": 5848,
      "venge": 5849,
      " jax": 5850,
      " range": 5851,
      " owner": 5852,
      " dude": 5853,
      "olog": 5854,
      " sentence": 5855,
      " curve": 5856,
      "gas": 5857,
      " issu": 5858,
      " shove": 5859,
      "xy": 5860,
      "ez": 5861,
      "uing": 5862,
      "wear": 5863,
      " role": 5864,
      " charged": 5865,
      " torture": 5866,
      " flower": 5867,
      " amber": 5868,
      " freaking": 5869,
      " mothers": 5870,
      " neg": 5871,
      " pig": 5872,
      " fourth": 5873,
      " fruit": 5874,
      " swore": 5875,
      " charles": 5876,
      "hi": 5877,
      " begged": 5878,
      " cough": 5879,
      "arted": 5880,
      " sugar": 5881,
      "rell": 5882,
      " wow": 5883,
      "ini": 5884,
      " driven": 5885,
      " nest": 5886,
      " proof": 5887,
      " prick": 5888,
      " mattered": 5889,
      " discover": 5890,
      " crad": 5891,
      " kicking": 5892,
      "-cl": 5893,
      " goodbye": 5894,
      " relig": 5895,
      " tab": 5896,
      " tipped": 5897,
      " wandered": 5898,
      " pra": 5899,
      "acon": 5900,
      " territ": 5901,
      "vere": 5902,
      " fel": 5903,
      " shots": 5904,
      " owe": 5905,
      "erica": 5906,
      "tail": 5907,
      "ilet": 5908,
      " ruined": 5909,
      " eighteen": 5910,
      " todd": 5911,
      "oria": 5912,
      " alien": 5913,
      " victoria": 5914,
      " deliver": 5915,
      "isions": 5916,
      " tam": 5917,
      "think": 5918,
      " unknown": 5919,
      " sail": 5920,
      " vin": 5921,
      " stuffed": 5922,
      " connect": 5923,
      "lee": 5924,
      " bubb": 5925,
      "luck": 5926,
      "gment": 5927,
      " wrapping": 5928,
      " casually": 5929,
      " dart": 5930,
      "avier": 5931,
      " clicked": 5932,
      "etch": 5933,
      " snake": 5934,
      "add": 5935,
      " shows": 5936,
      " brut": 5937,
      " snarled": 5938,
      " deadly": 5939,
      " asp": 5940,
      " percent": 5941,
      " limbs": 5942,
      " sele": 5943,
      " ought": 5944,
      "-on": 5945,
      " crowded": 5946,
      " booth": 5947,
      " perman": 5948,
      " chic": 5949,
      " gradu": 5950,
      " twin": 5951,
      "next": 5952,
      "arse": 5953,
      " yelling": 5954,
      " provide": 5955,
      "aries": 5956,
      " rarely": 5957,
      "mal": 5958,
      " injured": 5959,
      " cult": 5960,
      "ouch": 5961,
      " leapt": 5962,
      " sire": 5963,
      " obe": 5964,
      " jewel": 5965,
      "esty": 5966,
      "-you": 5967,
      " stares": 5968,
      "nobody": 5969,
      " kingdom": 5970,
      "wal": 5971,
      "inating": 5972,
      " pounded": 5973,
      "wat": 5974,
      "-r": 5975,
      "zzy": 5976,
      "iron": 5977,
      " sideways": 5978,
      " happily": 5979,
      " ach": 5980,
      " aston": 5981,
      " existed": 5982,
      "dor": 5983,
      " lun": 5984,
      " fathers": 5985,
      " mechan": 5986,
      " elbows": 5987,
      "cel": 5988,
      " realm": 5989,
      " halt": 5990,
      " march": 5991,
      "through": 5992,
      "rily": 5993,
      "surely": 5994,
      " guide": 5995,
      " stole": 5996,
      "uded": 5997,
      " audience": 5998,
      " tristan": 5999,
      "iger": 6000,
      " boun": 6001,
      " climbing": 6002,
      " dried": 6003,
      " gain": 6004,
      " recent": 6005,
      " agony": 6006,
      " forces": 6007,
      "almost": 6008,
      " basement": 6009,
      " mild": 6010,
      "together": 6011,
      " suc": 6012,
      " doubted": 6013,
      " tempor": 6014,
      " pizz": 6015,
      " collect": 6016,
      " influ": 6017,
      "'th": 6018,
      "cal": 6019,
      " dean": 6020,
      " caleb": 6021,
      "greg": 6022,
      " radi": 6023,
      " well-": 6024,
      "say": 6025,
      "ggy": 6026,
      " armor": 6027,
      " straw": 6028,
      " trash": 6029,
      "paul": 6030,
      " billy": 6031,
      "spe": 6032,
      " aching": 6033,
      " kend": 6034,
      " lawn": 6035,
      " owned": 6036,
      " mystery": 6037,
      " vic": 6038,
      " flashing": 6039,
      "soci": 6040,
      " acted": 6041,
      "icy": 6042,
      " movies": 6043,
      "ele": 6044,
      " cerem": 6045,
      " crouched": 6046,
      " tensed": 6047,
      " shifting": 6048,
      " maggie": 6049,
      "several": 6050,
      " sadness": 6051,
      "hard": 6052,
      "water": 6053,
      " horizon": 6054,
      " stress": 6055,
      " swiftly": 6056,
      " jumping": 6057,
      " sout": 6058,
      "lar": 6059,
      " click": 6060,
      " eur": 6061,
      " gif": 6062,
      " revol": 6063,
      "ideon": 6064,
      " stag": 6065,
      "ada": 6066,
      " feather": 6067,
      " kinds": 6068,
      " associ": 6069,
      "either": 6070,
      " marble": 6071,
      " greater": 6072,
      "yard": 6073,
      " surge": 6074,
      " stack": 6075,
      " stroke": 6076,
      " imper": 6077,
      " surre": 6078,
      "unting": 6079,
      "wind": 6080,
      "ipper": 6081,
      "ingly": 6082,
      "fan": 6083,
      "anything": 6084,
      " thorough": 6085,
      " gates": 6086,
      " jar": 6087,
      " tape": 6088,
      "uary": 6089,
      "itable": 6090,
      "-she": 6091,
      " orgasm": 6092,
      "armed": 6093,
      "town": 6094,
      " coach": 6095,
      "plus": 6096,
      "etic": 6097,
      " cleaning": 6098,
      " placing": 6099,
      " hills": 6100,
      "nis": 6101,
      " arranged": 6102,
      "raged": 6103,
      "-not": 6104,
      " trembled": 6105,
      " mob": 6106,
      " awesome": 6107,
      "aline": 6108,
      "peter": 6109,
      " folks": 6110,
      " sixteen": 6111,
      " bullshit": 6112,
      " crit": 6113,
      " signal": 6114,
      "guing": 6115,
      " spit": 6116,
      "isingly": 6117,
      "hens": 6118,
      " site": 6119,
      " endless": 6120,
      " violent": 6121,
      "ctors": 6122,
      " clan": 6123,
      " spilled": 6124,
      " babe": 6125,
      "theyre": 6126,
      "ailed": 6127,
      " cake": 6128,
      " sharing": 6129,
      " aver": 6130,
      " eleg": 6131,
      " armed": 6132,
      " impact": 6133,
      "-do": 6134,
      "org": 6135,
      "aving": 6136,
      " candle": 6137,
      " flowing": 6138,
      " envelope": 6139,
      " souls": 6140,
      " healing": 6141,
      " patch": 6142,
      " pity": 6143,
      "etr": 6144,
      "ixt": 6145,
      "hand": 6146,
      " rings": 6147,
      " drake": 6148,
      "shot": 6149,
      " appears": 6150,
      " darkened": 6151,
      " supplies": 6152,
      " lonely": 6153,
      " ruth": 6154,
      " curved": 6155,
      " medic": 6156,
      " ragged": 6157,
      " melted": 6158,
      " cheese": 6159,
      " youth": 6160,
      "cting": 6161,
      " scary": 6162,
      " snatched": 6163,
      " rude": 6164,
      " romantic": 6165,
      "list": 6166,
      " crossing": 6167,
      " string": 6168,
      " modern": 6169,
      " oak": 6170,
      " begging": 6171,
      " vig": 6172,
      " env": 6173,
      " contents": 6174,
      " frequ": 6175,
      " route": 6176,
      " fu": 6177,
      "icating": 6178,
      " traveled": 6179,
      "resh": 6180,
      " useless": 6181,
      " attitude": 6182,
      " classes": 6183,
      " knuckles": 6184,
      " useful": 6185,
      "-k": 6186,
      "mond": 6187,
      " moist": 6188,
      " inn": 6189,
      "immed": 6190,
      " lic": 6191,
      " kal": 6192,
      " dee": 6193,
      " absor": 6194,
      " blocks": 6195,
      " dece": 6196,
      "anor": 6197,
      " gang": 6198,
      "attering": 6199,
      " ached": 6200,
      " jonathan": 6201,
      " dipped": 6202,
      " angle": 6203,
      " contempl": 6204,
      " shiny": 6205,
      " captured": 6206,
      " swinging": 6207,
      " breasts": 6208,
      " fairy": 6209,
      " twisting": 6210,
      " smirk": 6211,
      "isc": 6212,
      "asses": 6213,
      " issues": 6214,
      "dr.": 6215,
      " fancy": 6216,
      " highway": 6217,
      " hired": 6218,
      " incident": 6219,
      " items": 6220,
      " positive": 6221,
      " estab": 6222,
      " cleaned": 6223,
      "actually": 6224,
      " photos": 6225,
      " chaos": 6226,
      " evan": 6227,
      " sheer": 6228,
      " plung": 6229,
      " sheep": 6230,
      " smoot": 6231,
      " backs": 6232,
      "ryan": 6233,
      " alec": 6234,
      "bow": 6235,
      " frost": 6236,
      " tuck": 6237,
      " aloud": 6238,
      " curls": 6239,
      " good-": 6240,
      " decent": 6241,
      " weakness": 6242,
      " err": 6243,
      " ellie": 6244,
      " huff": 6245,
      " scowled": 6246,
      " chances": 6247,
      " screwed": 6248,
      "osing": 6249,
      " rate": 6250,
      "last": 6251,
      " magical": 6252,
      " slumped": 6253,
      " werewolf": 6254,
      " alph": 6255,
      " grimaced": 6256,
      " polite": 6257,
      " jacob": 6258,
      " pinned": 6259,
      " spite": 6260,
      " famous": 6261,
      "uted": 6262,
      " fred": 6263,
      " st.": 6264,
      " theory": 6265,
      " thir": 6266,
      "phe": 6267,
      " rome": 6268,
      " stirred": 6269,
      " nu": 6270,
      "oy": 6271,
      " flex": 6272,
      " laptop": 6273,
      " false": 6274,
      " pouring": 6275,
      "aylor": 6276,
      " suffer": 6277,
      " shortly": 6278,
      "inside": 6279,
      " entry": 6280,
      " flag": 6281,
      "lau": 6282,
      " nipple": 6283,
      " clung": 6284,
      " unb": 6285,
      "ounds": 6286,
      "sw": 6287,
      " waking": 6288,
      " stool": 6289,
      " fond": 6290,
      " betr": 6291,
      " healthy": 6292,
      "white": 6293,
      "rently": 6294,
      " innoc": 6295,
      " dripping": 6296,
      " century": 6297,
      " yawn": 6298,
      " declared": 6299,
      " proved": 6300,
      " mercy": 6301,
      " heated": 6302,
      "claire": 6303,
      " consequ": 6304,
      " dylan": 6305,
      "gent": 6306,
      " monday": 6307,
      " device": 6308,
      "sur": 6309,
      " flung": 6310,
      " loaded": 6311,
      " carved": 6312,
      "thomas": 6313,
      "*ps": 6314,
      " ordinary": 6315,
      " h*ps": 6316,
      " scout": 6317,
      " central": 6318,
      " sty": 6319,
      " warn": 6320,
      " salt": 6321,
      " lamp": 6322,
      "ollen": 6323,
      " hurts": 6324,
      " shaft": 6325,
      " tries": 6326,
      " properly": 6327,
      " violence": 6328,
      " fled": 6329,
      " season": 6330,
      "hope": 6331,
      " wipe": 6332,
      " safely": 6333,
      " charm": 6334,
      "hunter": 6335,
      " signific": 6336,
      " mane": 6337,
      " earn": 6338,
      " trigger": 6339,
      " tips": 6340,
      " swords": 6341,
      " branch": 6342,
      " swollen": 6343,
      " biting": 6344,
      " shimm": 6345,
      " pizza": 6346,
      "nifer": 6347,
      " twins": 6348,
      " prepare": 6349,
      " chuckle": 6350,
      " america": 6351,
      "roy": 6352,
      " kevin": 6353,
      " rocked": 6354,
      " reck": 6355,
      "idy": 6356,
      " unsure": 6357,
      "eness": 6358,
      " exhaust": 6359,
      " danny": 6360,
      " patience": 6361,
      " sons": 6362,
      " estate": 6363,
      " sweater": 6364,
      " boring": 6365,
      " fears": 6366,
      "cony": 6367,
      " seek": 6368,
      "dev": 6369,
      "ua": 6370,
      " hannah": 6371,
      " lesson": 6372,
      "hip": 6373,
      " justin": 6374,
      " dram": 6375,
      "natural": 6376,
      " stroking": 6377,
      "sus": 6378,
      " steam": 6379,
      " stark": 6380,
      "kins": 6381,
      " dish": 6382,
      " brings": 6383,
      " bolt": 6384,
      " sergeant": 6385,
      "iona": 6386,
      "fee": 6387,
      " sticking": 6388,
      " buddy": 6389,
      "apt": 6390,
      "-two": 6391,
      " sucking": 6392,
      " martin": 6393,
      " arrival": 6394,
      "-le": 6395,
      " courty": 6396,
      " zach": 6397,
      " signed": 6398,
      " balcony": 6399,
      "vict": 6400,
      "eered": 6401,
      " arrog": 6402,
      " loos": 6403,
      " planted": 6404,
      " ankle": 6405,
      " lifet": 6406,
      "turning": 6407,
      "enses": 6408,
      "pse": 6409,
      " waitress": 6410,
      " murdered": 6411,
      " demand": 6412,
      " mug": 6413,
      " funeral": 6414,
      " prior": 6415,
      "event": 6416,
      " highly": 6417,
      " bits": 6418,
      " sophie": 6419,
      "cole": 6420,
      " drained": 6421,
      "ulous": 6422,
      " ringing": 6423,
      " element": 6424,
      " typ": 6425,
      " blocked": 6426,
      " jackson": 6427,
      " ped": 6428,
      " duke": 6429,
      "bbie": 6430,
      " suite": 6431,
      " lump": 6432,
      "ours": 6433,
      "lig": 6434,
      " aye": 6435,
      "great": 6436,
      " servants": 6437,
      " apr": 6438,
      " blowing": 6439,
      " smirked": 6440,
      " atl": 6441,
      " fields": 6442,
      " crushed": 6443,
      " refuse": 6444,
      " rounded": 6445,
      " bald": 6446,
      " dwar": 6447,
      " succeed": 6448,
      "rolling": 6449,
      " specific": 6450,
      " shone": 6451,
      " amanda": 6452,
      " crawl": 6453,
      " garion": 6454,
      " altern": 6455,
      " subst": 6456,
      "rous": 6457,
      " traced": 6458,
      " client": 6459,
      " icy": 6460,
      " py": 6461,
      " colin": 6462,
      " lin": 6463,
      "omi": 6464,
      " distinct": 6465,
      " wildly": 6466,
      "los": 6467,
      " novel": 6468,
      "veled": 6469,
      " ending": 6470,
      " utterly": 6471,
      " spirits": 6472,
      " sought": 6473,
      " sarc": 6474,
      " exhaled": 6475,
      " fork": 6476,
      " skill": 6477,
      " youd": 6478,
      " foreign": 6479,
      "____": 6480,
      "zie": 6481,
      "norm": 6482,
      " wire": 6483,
      " based": 6484,
      " nerve": 6485,
      " pear": 6486,
      " figures": 6487,
      " ga": 6488,
      " unit": 6489,
      " kyle": 6490,
      " waters": 6491,
      "jim": 6492,
      " gavin": 6493,
      " cotton": 6494,
      " needing": 6495,
      " gloves": 6496,
      " assign": 6497,
      "apes": 6498,
      " journal": 6499,
      " science": 6500,
      " drift": 6501,
      " rit": 6502,
      " lick": 6503,
      " carriage": 6504,
      " suffe": 6505,
      " shelter": 6506,
      "mble": 6507,
      " alice": 6508,
      "cor": 6509,
      " viv": 6510,
      "inged": 6511,
      " eggs": 6512,
      "dney": 6513,
      "ships": 6514,
      " leads": 6515,
      " chicago": 6516,
      " az": 6517,
      "acc": 6518,
      " pony": 6519,
      " swip": 6520,
      "dra": 6521,
      "love": 6522,
      " term": 6523,
      " encoun": 6524,
      " pounds": 6525,
      " jeremy": 6526,
      " gwen": 6527,
      " flowed": 6528,
      " mama": 6529,
      " o'clock": 6530,
      " switched": 6531,
      "gree": 6532,
      " tyler": 6533,
      " knot": 6534,
      " las": 6535,
      " finn": 6536,
      " bun": 6537,
      " slave": 6538,
      " cries": 6539,
      " sets": 6540,
      " kidna": 6541,
      " cheap": 6542,
      " necklace": 6543,
      "icop": 6544,
      " sang": 6545,
      " circled": 6546,
      " appropri": 6547,
      "logan": 6548,
      " pir": 6549,
      "atter": 6550,
      " matthew": 6551,
      " bride": 6552,
      " dreamed": 6553,
      " apple": 6554,
      " strained": 6555,
      " limp": 6556,
      " observed": 6557,
      "kate": 6558,
      " rag": 6559,
      " tearing": 6560,
      " colt": 6561,
      " roland": 6562,
      " grabs": 6563,
      " hyp": 6564,
      "mn": 6565,
      " suffered": 6566,
      " johnny": 6567,
      " hooked": 6568,
      "tal": 6569,
      " manip": 6570,
      "onel": 6571,
      "josh": 6572,
      " lane": 6573,
      " divor": 6574,
      " souther": 6575,
      "make": 6576,
      " schedule": 6577,
      "idently": 6578,
      "alie": 6579,
      "shine": 6580,
      " susan": 6581,
      " bark": 6582,
      " mason": 6583,
      " hopes": 6584,
      " justice": 6585,
      " bend": 6586,
      " pond": 6587,
      " taller": 6588,
      "ava": 6589,
      "iforn": 6590,
      " heel": 6591,
      " nostr": 6592,
      " citiz": 6593,
      " stake": 6594,
      " repeat": 6595,
      " mack": 6596,
      " bounced": 6597,
      " privacy": 6598,
      " wy": 6599,
      " calc": 6600,
      "allas": 6601,
      " homes": 6602,
      "jac": 6603,
      " scars": 6604,
      " ava": 6605,
      " holes": 6606,
      " compared": 6607,
      " spraw": 6608,
      " crashing": 6609,
      " soothing": 6610,
      "antha": 6611,
      " selfish": 6612,
      " latest": 6613,
      " director": 6614,
      " plates": 6615,
      " interior": 6616,
      "hin": 6617,
      " anton": 6618,
      " curtain": 6619,
      " pilot": 6620,
      "azing": 6621,
      " ol": 6622,
      " dise": 6623,
      "fying": 6624,
      " transfer": 6625,
      "izes": 6626,
      " messages": 6627,
      " dorm": 6628,
      "mic": 6629,
      " routine": 6630,
      " function": 6631,
      " prey": 6632,
      " jordan": 6633,
      " bottles": 6634,
      " dragons": 6635,
      "soph": 6636,
      "unless": 6637,
      " finds": 6638,
      "pain": 6639,
      " directed": 6640,
      " avoiding": 6641,
      " included": 6642,
      " lor": 6643,
      " develop": 6644,
      " tooth": 6645,
      " scre": 6646,
      " tangled": 6647,
      " reput": 6648,
      " helicop": 6649,
      "becca": 6650,
      "omeday": 6651,
      " gn": 6652,
      " eternity": 6653,
      " cooking": 6654,
      "having": 6655,
      " buttons": 6656,
      " dave": 6657,
      "ulating": 6658,
      " revenge": 6659,
      "bu": 6660,
      " ador": 6661,
      "tra": 6662,
      "oon": 6663,
      " educ": 6664,
      " charming": 6665,
      " dock": 6666,
      " located": 6667,
      " f**ked": 6668,
      " micro": 6669,
      " flared": 6670,
      "hole": 6671,
      "going": 6672,
      " brace": 6673,
      " ny": 6674,
      " californ": 6675,
      "arms": 6676,
      "also": 6677,
      "berry": 6678,
      " trial": 6679,
      " clever": 6680,
      " kay": 6681,
      " franc": 6682,
      "uming": 6683,
      " hunters": 6684,
      " jenny": 6685,
      " grasped": 6686,
      "daniel": 6687,
      " accompan": 6688,
      " bold": 6689,
      " goss": 6690,
      " floated": 6691,
      "four": 6692,
      "isk": 6693,
      " lege": 6694,
      " stew": 6695,
      " spider": 6696,
      " greatest": 6697,
      "ula": 6698,
      " princ": 6699,
      " visited": 6700,
      " daemon": 6701,
      " gripping": 6702,
      " hearts": 6703,
      "ulations": 6704,
      " doctors": 6705,
      "rom": 6706,
      "life": 6707,
      "ody": 6708,
      "prom": 6709,
      " mont": 6710,
      " aimed": 6711,
      " troll": 6712,
      " techno": 6713,
      " slamming": 6714,
      " ware": 6715,
      "frank": 6716,
      " slim": 6717,
      "ront": 6718,
      " anxiety": 6719,
      " puzzled": 6720,
      " bio": 6721,
      "guard": 6722,
      " cases": 6723,
      "simon": 6724,
      " europe": 6725,
      " corn": 6726,
      " babies": 6727,
      " kings": 6728,
      " rack": 6729,
      " mex": 6730,
      "box": 6731,
      " legal": 6732,
      " talent": 6733,
      " wigg": 6734,
      " whim": 6735,
      " bee": 6736,
      " flip": 6737,
      " rolls": 6738,
      " sant": 6739,
      " muffled": 6740,
      " hits": 6741,
      " oblig": 6742,
      " quinn": 6743,
      " monsters": 6744,
      "low": 6745,
      "fred": 6746,
      " equally": 6747,
      " toilet": 6748,
      " coinc": 6749,
      " haz": 6750,
      "bon": 6751,
      " obsc": 6752,
      "nn": 6753,
      " dared": 6754,
      " pursu": 6755,
      " slap": 6756,
      " intently": 6757,
      " quarters": 6758,
      "iple": 6759,
      " daily": 6760,
      " crush": 6761,
      "wow": 6762,
      " chains": 6763,
      " wherever": 6764,
      "cha": 6765,
      " ladder": 6766,
      "hor": 6767,
      " model": 6768,
      "-be": 6769,
      "iveness": 6770,
      " smells": 6771,
      "i-": 6772,
      "power": 6773,
      "tan": 6774,
      " mentally": 6775,
      " squad": 6776,
      "amm": 6777,
      " swimming": 6778,
      " dante": 6779,
      " measure": 6780,
      "umpled": 6781,
      " forb": 6782,
      " wiping": 6783,
      "iper": 6784,
      " fund": 6785,
      " sorts": 6786,
      " require": 6787,
      " glowed": 6788,
      "enth": 6789,
      "ros": 6790,
      "umph": 6791,
      " velvet": 6792,
      " trevor": 6793,
      "'s": 6794,
      " miracle": 6795,
      " goal": 6796,
      " arc": 6797,
      " scot": 6798,
      " sparhawk": 6799,
      " duck": 6800,
      " bore": 6801,
      "ibilities": 6802,
      "renaline": 6803,
      " counted": 6804,
      "chris": 6805,
      " manager": 6806,
      " ankles": 6807,
      " platform": 6808,
      " strate": 6809,
      "away": 6810,
      " defeat": 6811,
      " shouldnt": 6812,
      "essing": 6813,
      " thirteen": 6814,
      " hatred": 6815,
      "grand": 6816,
      "inte": 6817,
      "aws": 6818,
      " helmet": 6819,
      " furrow": 6820,
      "lay": 6821,
      "inge": 6822,
      " 'em": 6823,
      "rant": 6824,
      " options": 6825,
      " fleet": 6826,
      "chief": 6827,
      "-for": 6828,
      " fever": 6829,
      " admir": 6830,
      "inder": 6831,
      "rad": 6832,
      " slender": 6833,
      " twitched": 6834,
      "knowing": 6835,
      "ission": 6836,
      " panting": 6837,
      " grumbled": 6838,
      "emily": 6839,
      " garb": 6840,
      " example": 6841,
      " prisoner": 6842,
      " slick": 6843,
      " intimate": 6844,
      " southern": 6845,
      " bullets": 6846,
      "inate": 6847,
      " joseph": 6848,
      " nostrils": 6849,
      "gage": 6850,
      " worlds": 6851,
      "antically": 6852,
      " meas": 6853,
      " angels": 6854,
      "iar": 6855,
      " borrow": 6856,
      " bik": 6857,
      "joe": 6858,
      " lifetime": 6859,
      "uten": 6860,
      " united": 6861,
      " england": 6862,
      " shaky": 6863,
      " muse": 6864,
      "lers": 6865,
      " marie": 6866,
      " results": 6867,
      " julie": 6868,
      " rod": 6869,
      "moving": 6870,
      "ciousness": 6871,
      "uments": 6872,
      "abor": 6873,
      " toe": 6874,
      " frowning": 6875,
      "ji": 6876,
      " exerc": 6877,
      " kelly": 6878,
      " raz": 6879,
      " entering": 6880,
      "asant": 6881,
      " lid": 6882,
      "acles": 6883,
      " craft": 6884,
      " emph": 6885,
      " fuel": 6886,
      " sniffed": 6887,
      " aisle": 6888,
      "uri": 6889,
      " rav": 6890,
      " scoot": 6891,
      " metho": 6892,
      " tack": 6893,
      " efforts": 6894,
      " darker": 6895,
      " nak": 6896,
      "vo": 6897,
      "icole": 6898,
      " caring": 6899,
      "anie": 6900,
      " barrel": 6901,
      " magazine": 6902,
      "today": 6903,
      "jamie": 6904,
      " plus": 6905,
      "always": 6906,
      "aa": 6907,
      " servant": 6908,
      " handing": 6909,
      " squinted": 6910,
      " agents": 6911,
      " seeking": 6912,
      " wrinkled": 6913,
      " persu": 6914,
      " dip": 6915,
      "itching": 6916,
      " records": 6917,
      " lands": 6918,
      "ainted": 6919,
      "mod": 6920,
      " mistress": 6921,
      "ige": 6922,
      " corpor": 6923,
      "mates": 6924,
      " recalled": 6925,
      " popular": 6926,
      " pitch": 6927,
      "ops": 6928,
      "giving": 6929,
      " penetr": 6930,
      "rain": 6931,
      " steep": 6932,
      " grounds": 6933,
      " inhaled": 6934,
      "uman": 6935,
      " edward": 6936,
      " senior": 6937,
      " flee": 6938,
      " lect": 6939,
      " replace": 6940,
      " outer": 6941,
      " fourteen": 6942,
      " subtle": 6943,
      " hank": 6944,
      "youve": 6945,
      "retched": 6946,
      " locker": 6947,
      " candy": 6948,
      " distract": 6949,
      " inev": 6950,
      " betrayed": 6951,
      "luke": 6952,
      "words": 6953,
      " species": 6954,
      " glaring": 6955,
      "fine": 6956,
      " prayed": 6957,
      " sinking": 6958,
      " cott": 6959,
      " designed": 6960,
      " curtains": 6961,
      " flooded": 6962,
      " tale": 6963,
      " outfit": 6964,
      " soaked": 6965,
      " cush": 6966,
      " jung": 6967,
      " tin": 6968,
      " groups": 6969,
      " jobs": 6970,
      " kane": 6971,
      " ceremony": 6972,
      " feeding": 6973,
      " myth": 6974,
      " atop": 6975,
      " joking": 6976,
      " bron": 6977,
      " worrying": 6978,
      "far": 6979,
      "bone": 6980,
      "hem": 6981,
      "matt": 6982,
      " shane": 6983,
      " confirm": 6984,
      " activity": 6985,
      " intri": 6986,
      " reported": 6987,
      " shallow": 6988,
      " shelf": 6989,
      "phy": 6990,
      " tossing": 6991,
      " guitar": 6992,
      " patrick": 6993,
      "ification": 6994,
      " unlocked": 6995,
      " landsc": 6996,
      "ums": 6997,
      "kylie": 6998,
      " matching": 6999,
      " floors": 7000,
      "vity": 7001,
      " engage": 7002,
      " cuff": 7003,
      " draped": 7004,
      " brightly": 7005,
      " examined": 7006,
      " data": 7007,
      " sab": 7008,
      " roger": 7009,
      " clasped": 7010,
      " sandwich": 7011,
      " melissa": 7012,
      "anting": 7013,
      " barked": 7014,
      " helen": 7015,
      "icholas": 7016,
      " cameras": 7017,
      " degree": 7018,
      "happy": 7019,
      " conven": 7020,
      " whirled": 7021,
      " syn": 7022,
      "cassie": 7023,
      " obliv": 7024,
      "'we": 7025,
      " jill": 7026,
      "quar": 7027,
      " avoided": 7028,
      "mend": 7029,
      " creating": 7030,
      "within": 7031,
      " occupied": 7032,
      "ications": 7033,
      " grandma": 7034,
      " engaged": 7035,
      " sophia": 7036,
      " devon": 7037,
      " describe": 7038,
      " mayor": 7039,
      " veget": 7040,
      " lucien": 7041,
      " ast": 7042,
      " flush": 7043,
      " assault": 7044,
      "agne": 7045,
      "pass": 7046,
      "icient": 7047,
      " railing": 7048,
      " adjusted": 7049,
      " roughly": 7050,
      "cam": 7051,
      " ranch": 7052,
      "ector": 7053,
      "olded": 7054,
      " labor": 7055,
      " gritted": 7056,
      " chasing": 7057,
      " adop": 7058,
      " empt": 7059,
      " value": 7060,
      " sob": 7061,
      " perf": 7062,
      "py": 7063,
      "sphere": 7064,
      "apers": 7065,
      " guar": 7066,
      " clary": 7067,
      " weve": 7068,
      "ounded": 7069,
      " parties": 7070,
      " wagon": 7071,
      " stripped": 7072,
      " tug": 7073,
      " awa": 7074,
      "ii": 7075,
      " chim": 7076,
      " hoarse": 7077,
      "vas": 7078,
      "arian": 7079,
      " hudd": 7080,
      " dishes": 7081,
      " scratch": 7082,
      " majesty": 7083,
      " formal": 7084,
      " dressing": 7085,
      " blades": 7086,
      " reports": 7087,
      "avi": 7088,
      " nope": 7089,
      " duncan": 7090,
      "eck": 7091,
      " lighting": 7092,
      " spray": 7093,
      "ties": 7094,
      " cavern": 7095,
      " spear": 7096,
      " blush": 7097,
      " border": 7098,
      "itated": 7099,
      " asse": 7100,
      " smug": 7101,
      "icide": 7102,
      " curl": 7103,
      "five": 7104,
      "ench": 7105,
      " reward": 7106,
      " heather": 7107,
      " memor": 7108,
      " immortal": 7109,
      " victims": 7110,
      "idents": 7111,
      " fading": 7112,
      "cat": 7113,
      " dusty": 7114,
      "alian": 7115,
      " register": 7116,
      "mbled": 7117,
      " erection": 7118,
      " cabinet": 7119,
      " juice": 7120,
      " nan": 7121,
      " channel": 7122,
      " humili": 7123,
      " cups": 7124,
      " torment": 7125,
      " laying": 7126,
      " files": 7127,
      " garrett": 7128,
      "istr": 7129,
      " product": 7130,
      "~~": 7131,
      "gus": 7132,
      "kind": 7133,
      " acade": 7134,
      " triumph": 7135,
      " supply": 7136,
      "entine": 7137,
      "obv": 7138,
      " erup": 7139,
      " steering": 7140,
      " cuts": 7141,
      "istered": 7142,
      " guardian": 7143,
      "stick": 7144,
      " accur": 7145,
      " dreaming": 7146,
      " forming": 7147,
      " hmm": 7148,
      " jeep": 7149,
      "henry": 7150,
      " intimid": 7151,
      " player": 7152,
      " tact": 7153,
      "lad": 7154,
      "sky": 7155,
      " gig": 7156,
      " propped": 7157,
      " goddamn": 7158,
      " fade": 7159,
      " judgment": 7160,
      " analy": 7161,
      " load": 7162,
      "foot": 7163,
      " smoking": 7164,
      " som": 7165,
      " shoving": 7166,
      " isa": 7167,
      " virt": 7168,
      "burn": 7169,
      " lil": 7170,
      " termin": 7171,
      " settling": 7172,
      " giggle": 7173,
      " flor": 7174,
      "holy": 7175,
      " gossip": 7176,
      " dal": 7177,
      "ban": 7178,
      " scarlet": 7179,
      " ridge": 7180,
      " annoying": 7181,
      " mered": 7182,
      "path": 7183,
      " prayer": 7184,
      " leaped": 7185,
      " toast": 7186,
      " leaders": 7187,
      " ashamed": 7188,
      " poked": 7189,
      " ink": 7190,
      " meredith": 7191,
      " victory": 7192,
      "iah": 7193,
      " daylight": 7194,
      " miranda": 7195,
      " flinched": 7196,
      "swe": 7197,
      " needle": 7198,
      " cub": 7199,
      "tre": 7200,
      " adult": 7201,
      "hello": 7202,
      " louis": 7203,
      " iv": 7204,
      " ves": 7205,
      " transl": 7206,
      " eh": 7207,
      " caf": 7208,
      "ola": 7209,
      " pave": 7210,
      " national": 7211,
      " suv": 7212,
      " ass**": 7213,
      " sorrow": 7214,
      " intend": 7215,
      " sung": 7216,
      "urry": 7217,
      " katie": 7218,
      " eyelids": 7219,
      " package": 7220,
      " compass": 7221,
      " amazed": 7222,
      "unks": 7223,
      " vaguely": 7224,
      " melo": 7225,
      " haunted": 7226,
      " blankets": 7227,
      " minor": 7228,
      " adding": 7229,
      "rs": 7230,
      " matched": 7231,
      " annoy": 7232,
      " oli": 7233,
      "ardon": 7234,
      " hammer": 7235,
      " lashes": 7236,
      "uther": 7237,
      "agers": 7238,
      " horn": 7239,
      " corpse": 7240,
      " stalked": 7241,
      " spots": 7242,
      " statue": 7243,
      "'am": 7244,
      "non": 7245,
      " plants": 7246,
      " choices": 7247,
      " fortune": 7248,
      " fantasy": 7249,
      "abby": 7250,
      "obviously": 7251,
      " sipped": 7252,
      "'that": 7253,
      " combat": 7254,
      "hon": 7255,
      " campus": 7256,
      " masc": 7257,
      " atmo": 7258,
      "mine": 7259,
      "wild": 7260,
      " brid": 7261,
      "hest": 7262,
      " dove": 7263,
      " suits": 7264,
      " lighter": 7265,
      " marched": 7266,
      " blushed": 7267,
      " indust": 7268,
      " confront": 7269,
      "bie": 7270,
      "mir": 7271,
      "tled": 7272,
      " assure": 7273,
      "usive": 7274,
      "liz": 7275,
      "udge": 7276,
      "loved": 7277,
      " sixty": 7278,
      "aware": 7279,
      " adrian": 7280,
      " rocking": 7281,
      "iqu": 7282,
      " buff": 7283,
      " angrily": 7284,
      "utenant": 7285,
      " noble": 7286,
      " jab": 7287,
      " exciting": 7288,
      " arguing": 7289,
      " ginger": 7290,
      " yep": 7291,
      " swirling": 7292,
      "half": 7293,
      " math": 7294,
      "'no": 7295,
      "thor": 7296,
      "asmine": 7297,
      " wizard": 7298,
      " weep": 7299,
      " fridge": 7300,
      " hopped": 7301,
      " belief": 7302,
      " bushes": 7303,
      " panicked": 7304,
      " web": 7305,
      " stained": 7306,
      "-time": 7307,
      "silence": 7308,
      "iev": 7309,
      " elegant": 7310,
      " exasper": 7311,
      " lunged": 7312,
      "thur": 7313,
      " striking": 7314,
      " smashed": 7315,
      " tag": 7316,
      " anne": 7317,
      " buying": 7318,
      "atives": 7319,
      " film": 7320,
      " roman": 7321,
      " toler": 7322,
      " blown": 7323,
      " peaceful": 7324,
      "iders": 7325,
      " grocer": 7326,
      "ester": 7327,
      " kil": 7328,
      " sanct": 7329,
      "zens": 7330,
      "iser": 7331,
      "kar": 7332,
      " realised": 7333,
      " compound": 7334,
      "such": 7335,
      " stif": 7336,
      " dod": 7337,
      " witches": 7338,
      "ock": 7339,
      " tugging": 7340,
      " bund": 7341,
      " clit": 7342,
      " dumped": 7343,
      " sunshine": 7344,
      " aug": 7345,
      " ara": 7346,
      " depths": 7347,
      " glim": 7348,
      " hesitate": 7349,
      " soap": 7350,
      " neatly": 7351,
      " mim": 7352,
      " rocky": 7353,
      "-colored": 7354,
      "second": 7355,
      " merc": 7356,
      " panel": 7357,
      " mansion": 7358,
      "cons": 7359,
      " vacation": 7360,
      " choo": 7361,
      " quality": 7362,
      " affect": 7363,
      "ware": 7364,
      " ded": 7365,
      " elena": 7366,
      " ours": 7367,
      "aden": 7368,
      " breaks": 7369,
      "umes": 7370,
      "heard": 7371,
      " sadly": 7372,
      " blinking": 7373,
      " severe": 7374,
      " awe": 7375,
      " consumed": 7376,
      " grat": 7377,
      "-no": 7378,
      "headed": 7379,
      " benefit": 7380,
      " sofia": 7381,
      "tes": 7382,
      " intru": 7383,
      " nuts": 7384,
      " approval": 7385,
      " softened": 7386,
      " cler": 7387,
      " paced": 7388,
      " shoe": 7389,
      " blocking": 7390,
      " dwarf": 7391,
      " title": 7392,
      " british": 7393,
      "ida": 7394,
      " dav": 7395,
      " jean": 7396,
      " wry": 7397,
      " braced": 7398,
      " related": 7399,
      " dump": 7400,
      " mrs": 7401,
      "during": 7402,
      " hem": 7403,
      "isab": 7404,
      " wasted": 7405,
      " sib": 7406,
      " someday": 7407,
      " frantic": 7408,
      "quis": 7409,
      " blurted": 7410,
      " initial": 7411,
      " wishes": 7412,
      " internet": 7413,
      " snapping": 7414,
      " owen": 7415,
      " spy": 7416,
      " pushes": 7417,
      "julian": 7418,
      " bud": 7419,
      " dash": 7420,
      " mit": 7421,
      " candles": 7422,
      " alpha": 7423,
      " status": 7424,
      "fic": 7425,
      " headache": 7426,
      " noticing": 7427,
      " politely": 7428,
      "william": 7429,
      " stabbed": 7430,
      " sealed": 7431,
      " areas": 7432,
      " gau": 7433,
      "jan": 7434,
      "ww": 7435,
      " cure": 7436,
      " healed": 7437,
      " argued": 7438,
      "ressing": 7439,
      " shouts": 7440,
      " glor": 7441,
      " odds": 7442,
      " coughed": 7443,
      " churn": 7444,
      " outs": 7445,
      " ton": 7446,
      " gazing": 7447,
      " wallet": 7448,
      " jungle": 7449,
      "dis": 7450,
      "aria": 7451,
      " confl": 7452,
      " laura": 7453,
      "nels": 7454,
      " hauled": 7455,
      "nan": 7456,
      "enced": 7457,
      " counting": 7458,
      " jesse": 7459,
      " gap": 7460,
      " despair": 7461,
      " impul": 7462,
      "ishly": 7463,
      " joining": 7464,
      " equal": 7465,
      " stan": 7466,
      "urd": 7467,
      " gifts": 7468,
      " patrol": 7469,
      "omy": 7470,
      " baseball": 7471,
      " escort": 7472,
      " rows": 7473,
      " jones": 7474,
      " toy": 7475,
      " tat": 7476,
      " stefan": 7477,
      " amongst": 7478,
      " pup": 7479,
      "mares": 7480,
      " seized": 7481,
      " num": 7482,
      "-off": 7483,
      " grins": 7484,
      "youll": 7485,
      " clapped": 7486,
      " bliss": 7487,
      " ghosts": 7488,
      "pull": 7489,
      " explore": 7490,
      " polished": 7491,
      " #": 7492,
      " devast": 7493,
      "pret": 7494,
      " gideon": 7495,
      "later": 7496,
      " wrest": 7497,
      " meg": 7498,
      " tessa": 7499,
      " monitor": 7500,
      " bush": 7501,
      " mouths": 7502,
      "dro": 7503,
      " scoff": 7504,
      " smack": 7505,
      " mini": 7506,
      " thus": 7507,
      "lasses": 7508,
      "clear": 7509,
      " qual": 7510,
      " complain": 7511,
      "stay": 7512,
      "jared": 7513,
      " pine": 7514,
      "epend": 7515,
      " maneu": 7516,
      " scor": 7517,
      " ensure": 7518,
      " absence": 7519,
      " cottage": 7520,
      " ramp": 7521,
      " gh": 7522,
      " glist": 7523,
      " remar": 7524,
      " grade": 7525,
      " strands": 7526,
      " molly": 7527,
      " sting": 7528,
      " wreck": 7529,
      " ritual": 7530,
      "adin": 7531,
      " jessica": 7532,
      "wom": 7533,
      " colored": 7534,
      " uneasy": 7535,
      "rena": 7536,
      " treasure": 7537,
      "urt": 7538,
      " therap": 7539,
      "*d": 7540,
      "cale": 7541,
      " peering": 7542,
      " sighs": 7543,
      " unique": 7544,
      " greed": 7545,
      "amy": 7546,
      " saddle": 7547,
      "bones": 7548,
      " brandon": 7549,
      " nak*d": 7550,
      "better": 7551,
      " hovering": 7552,
      " fae": 7553,
      " identity": 7554,
      " torso": 7555,
      " ens": 7556,
      " taylor": 7557,
      " visiting": 7558,
      " financ": 7559,
      " whip": 7560,
      " roads": 7561,
      " fires": 7562,
      " quiver": 7563,
      " rights": 7564,
      " greeting": 7565,
      " media": 7566,
      " sympathy": 7567,
      " sprang": 7568,
      " solution": 7569,
      " affair": 7570,
      " zero": 7571,
      " limited": 7572,
      " keen": 7573,
      " shudder": 7574,
      "zer": 7575,
      " slee": 7576,
      " beaten": 7577,
      "craft": 7578,
      " aven": 7579,
      "rak": 7580,
      " basic": 7581,
      " hyster": 7582,
      " seam": 7583,
      " tiger": 7584,
      " jimmy": 7585,
      " shred": 7586,
      " pathetic": 7587,
      "alf": 7588,
      " laws": 7589,
      " explos": 7590,
      " russian": 7591,
      " fishing": 7592,
      "uish": 7593,
      "del": 7594,
      " lore": 7595,
      " noises": 7596,
      " elabor": 7597,
      " phr": 7598,
      " forms": 7599,
      " thrilled": 7600,
      " announce": 7601,
      " peeked": 7602,
      " produced": 7603,
      " lingered": 7604,
      "-br": 7605,
      " becomes": 7606,
      " mour": 7607,
      " rein": 7608,
      " psychic": 7609,
      " touches": 7610,
      "itors": 7611,
      "sers": 7612,
      " mes": 7613,
      " pacing": 7614,
      " stable": 7615,
      "hy": 7616,
      " holden": 7617,
      " ez": 7618,
      " troops": 7619,
      "zo": 7620,
      "-eight": 7621,
      "outed": 7622,
      " anth": 7623,
      " goodness": 7624,
      " gasping": 7625,
      " sped": 7626,
      " receive": 7627,
      " sweeping": 7628,
      " teaching": 7629,
      "onsense": 7630,
      " thirst": 7631,
      " ille": 7632,
      " apology": 7633,
      "helle": 7634,
      "bra": 7635,
      " apparent": 7636,
      "oliv": 7637,
      "mont": 7638,
      " crimson": 7639,
      " haven": 7640,
      " nudged": 7641,
      " dag": 7642,
      " bang": 7643,
      " ashe": 7644,
      " carter": 7645,
      "itri": 7646,
      " erupted": 7647,
      " disgu": 7648,
      " western": 7649,
      " revel": 7650,
      " owed": 7651,
      " daisy": 7652,
      " texas": 7653,
      " speaks": 7654,
      " tate": 7655,
      " barrier": 7656,
      " urged": 7657,
      " mik": 7658,
      " colonel": 7659,
      " compre": 7660,
      " tempted": 7661,
      " sincere": 7662,
      " tube": 7663,
      " gabe": 7664,
      " firing": 7665,
      " muscular": 7666,
      "ooled": 7667,
      " trailer": 7668,
      "'the": 7669,
      " seal": 7670,
      "ivan": 7671,
      "occ": 7672,
      " anytime": 7673,
      "ifying": 7674,
      " tumbled": 7675,
      " hovered": 7676,
      "wr": 7677,
      " drifting": 7678,
      "mber": 7679,
      " forearm": 7680,
      "child": 7681,
      " wider": 7682,
      " syl": 7683,
      " q": 7684,
      "nice": 7685,
      " guided": 7686,
      " dresser": 7687,
      "tonight": 7688,
      " self-c": 7689,
      " consp": 7690,
      " shrugs": 7691,
      " sports": 7692,
      " sliced": 7693,
      " slit": 7694,
      " shotgun": 7695,
      " ma'am": 7696,
      "xed": 7697,
      " pierce": 7698,
      " bucket": 7699,
      " plo": 7700,
      " crawling": 7701,
      " chap": 7702,
      " fbi": 7703,
      "mill": 7704,
      " disease": 7705,
      " whore": 7706,
      "tim": 7707,
      " recon": 7708,
      " coward": 7709,
      " fingern": 7710,
      " curb": 7711,
      " suitcase": 7712,
      "noah": 7713,
      " earned": 7714,
      "inde": 7715,
      "agging": 7716,
      " thumbs": 7717,
      "-sp": 7718,
      " resour": 7719,
      "osition": 7720,
      "emet": 7721,
      " 'i": 7722,
      " shay": 7723,
      " thanked": 7724,
      " jessie": 7725,
      " danc": 7726,
      " notebook": 7727,
      "ixture": 7728,
      " survival": 7729,
      "olivia": 7730,
      " wary": 7731,
      " you-": 7732,
      " facts": 7733,
      " ribb": 7734,
      " fragile": 7735,
      "zes": 7736,
      " nause": 7737,
      " pie": 7738,
      " nina": 7739,
      " email": 7740,
      " beings": 7741,
      " review": 7742,
      " mock": 7743,
      " archer": 7744,
      "oen": 7745,
      " songs": 7746,
      " terribly": 7747,
      " pete": 7748,
      " ticket": 7749,
      " worries": 7750,
      "jesus": 7751,
      "ifully": 7752,
      " standard": 7753,
      "reed": 7754,
      " tiss": 7755,
      " aaron": 7756,
      " involve": 7757,
      " aidan": 7758,
      " advanced": 7759,
      "sis": 7760,
      "-j": 7761,
      " ages": 7762,
      "made": 7763,
      " pillows": 7764,
      " withdrew": 7765,
      " mounted": 7766,
      "inic": 7767,
      "uttered": 7768,
      "aste": 7769,
      " ming": 7770,
      " downtown": 7771,
      " empire": 7772,
      " oliver": 7773,
      "liam": 7774,
      " gravel": 7775,
      " ral": 7776,
      " skinny": 7777,
      " launched": 7778,
      " lam": 7779,
      "ssa": 7780,
      " vom": 7781,
      " gleaming": 7782,
      " ec": 7783,
      "-de": 7784,
      " german": 7785,
      " maria": 7786,
      " oddly": 7787,
      "richard": 7788,
      " guessing": 7789,
      " wheels": 7790,
      " damien": 7791,
      " slice": 7792,
      " pent": 7793,
      " uns": 7794,
      " lifts": 7795,
      " piercing": 7796,
      "goti": 7797,
      "inity": 7798,
      " vest": 7799,
      "rat": 7800,
      " sally": 7801,
      "listen": 7802,
      " invite": 7803,
      " torch": 7804,
      " messed": 7805,
      " spoon": 7806,
      " recover": 7807,
      " isaac": 7808,
      "-three": 7809,
      " stealing": 7810,
      " unple": 7811,
      "mart": 7812,
      " humanity": 7813,
      "arded": 7814,
      "'and": 7815,
      " melt": 7816,
      "aughters": 7817,
      " dex": 7818,
      "ba": 7819,
      " shelves": 7820,
      " knights": 7821,
      " tel": 7822,
      " maintain": 7823,
      " pavement": 7824,
      " curling": 7825,
      "ender": 7826,
      "point": 7827,
      " liber": 7828,
      " sale": 7829,
      " noon": 7830,
      "imately": 7831,
      " tempt": 7832,
      " andre": 7833,
      " mck": 7834,
      "ryn": 7835,
      " sometime": 7836,
      " license": 7837,
      "weve": 7838,
      " reminder": 7839,
      "kim": 7840,
      "rob": 7841,
      " zombie": 7842,
      "ijah": 7843,
      " purchase": 7844,
      " pinched": 7845,
      " inclined": 7846,
      " smoothed": 7847,
      " deserted": 7848,
      " solemn": 7849,
      " damon": 7850,
      " explode": 7851,
      "wolves": 7852,
      "iter": 7853,
      " assassin": 7854,
      " rigid": 7855,
      "raction": 7856,
      "connor": 7857,
      " ripping": 7858,
      " locks": 7859,
      "julia": 7860,
      "acious": 7861,
      "irl": 7862,
      " tapping": 7863,
      " hut": 7864,
      " tara": 7865,
      " fount": 7866,
      " navy": 7867,
      " excl": 7868,
      " newly": 7869,
      " crisp": 7870,
      " topic": 7871,
      "trust": 7872,
      " kir": 7873,
      " schol": 7874,
      " zoe": 7875,
      " admin": 7876,
      "vie": 7877,
      "aye": 7878,
      " hardened": 7879,
      " shifter": 7880,
      " annie": 7881,
      "gic": 7882,
      "ulted": 7883,
      " ass**le": 7884,
      " knives": 7885,
      "uable": 7886,
      "ador": 7887,
      " disag": 7888,
      " rumors": 7889,
      " bould": 7890,
      " vegas": 7891,
      " affected": 7892,
      "adia": 7893,
      " snugg": 7894,
      " cells": 7895,
      " boston": 7896,
      " county": 7897,
      " swirled": 7898,
      " serving": 7899,
      "-down": 7900,
      " criminal": 7901,
      " facility": 7902,
      " saint": 7903,
      "iano": 7904,
      " smoothly": 7905,
      "rors": 7906,
      "rences": 7907,
      " carl": 7908,
      "fted": 7909,
      " spencer": 7910,
      " portal": 7911,
      "tling": 7912,
      "iner": 7913,
      " pic": 7914,
      " dallas": 7915,
      " ryder": 7916,
      " insides": 7917,
      "osure": 7918,
      "inese": 7919,
      "jeff": 7920,
      " superior": 7921,
      " potato": 7922,
      " soup": 7923,
      " chewed": 7924,
      "shall": 7925,
      "new": 7926,
      " bills": 7927,
      "cut": 7928,
      "vey": 7929,
      " burns": 7930,
      " mister": 7931,
      " sleeves": 7932,
      " clamped": 7933,
      " licking": 7934,
      "'yes": 7935,
      " nail": 7936,
      " and-": 7937,
      " rubber": 7938,
      " bouncing": 7939,
      " foul": 7940,
      " medicine": 7941,
      " fulf": 7942,
      " ponytail": 7943,
      " savage": 7944,
      " lion": 7945,
      "ko": 7946,
      " volume": 7947,
      " emper": 7948,
      "estly": 7949,
      " clients": 7950,
      " services": 7951,
      " sev": 7952,
      " freezing": 7953,
      " minim": 7954,
      " abo": 7955,
      "feeling": 7956,
      " pleading": 7957,
      " ambul": 7958,
      " plunged": 7959,
      " hatch": 7960,
      "isha": 7961,
      " good-bye": 7962,
      " lisa": 7963,
      "amiliar": 7964,
      " i-": 7965,
      " smacked": 7966,
      " crooked": 7967,
      " magnific": 7968,
      " regarded": 7969,
      "bag": 7970,
      " glory": 7971,
      " lazy": 7972,
      "worth": 7973,
      " assh": 7974,
      "ighing": 7975,
      " barg": 7976,
      " rim": 7977,
      ".com": 7978,
      "itute": 7979,
      " typical": 7980,
      " dozens": 7981,
      " italian": 7982,
      "-foot": 7983,
      " sack": 7984,
      " leon": 7985,
      " misery": 7986,
      " vicious": 7987,
      "six": 7988,
      " gained": 7989,
      " ka": 7990,
      " injuries": 7991,
      " fox": 7992,
      " layer": 7993,
      " plot": 7994,
      "ivar": 7995,
      " attor": 7996,
      " dizzy": 7997,
      " tee": 7998,
      "-and-": 7999,
      " longing": 8000,
      " isol": 8001,
      "fo": 8002,
      " museum": 8003,
      " smash": 8004,
      " blouse": 8005,
      " pron": 8006,
      " jude": 8007,
      "iments": 8008,
      " jennifer": 8009,
      " ree": 8010,
      " exited": 8011,
      " legend": 8012,
      " deaf": 8013,
      " warmed": 8014,
      " brutal": 8015,
      " effects": 8016,
      " mighty": 8017,
      " spilling": 8018,
      " prospect": 8019,
      " les": 8020,
      " replies": 8021,
      " clust": 8022,
      "force": 8023,
      " dwell": 8024,
      " griff": 8025,
      " bury": 8026,
      " fifth": 8027,
      " vincent": 8028,
      " mouse": 8029,
      "eron": 8030,
      " madness": 8031,
      " flicker": 8032,
      " consc": 8033,
      " decades": 8034,
      "oub": 8035,
      " arrested": 8036,
      " winning": 8037,
      " backing": 8038,
      "enelle": 8039,
      " aiden": 8040,
      " roy": 8041,
      " clam": 8042,
      " bug": 8043,
      "iva": 8044,
      " kin": 8045,
      " >": 8046,
      " powder": 8047,
      " dealt": 8048,
      "tin": 8049,
      "sean": 8050,
      "jay": 8051,
      " pipe": 8052,
      " pleaded": 8053,
      " rattled": 8054,
      " detect": 8055,
      " laund": 8056,
      " socks": 8057,
      " scowl": 8058,
      "bill": 8059,
      "derer": 8060,
      " pry": 8061,
      "itches": 8062,
      " tortured": 8063,
      " nut": 8064,
      " magnus": 8065,
      " cer": 8066,
      " roses": 8067,
      "ipher": 8068,
      " vehicles": 8069,
      "tony": 8070,
      " aura": 8071,
      " helps": 8072,
      " persp": 8073,
      " foyer": 8074,
      " drama": 8075,
      " $": 8076,
      " unse": 8077,
      "bbling": 8078,
      " leaf": 8079,
      " sydney": 8080,
      " mistakes": 8081,
      " hom": 8082,
      "dark": 8083,
      "sir": 8084,
      "oid": 8085,
      " myst": 8086,
      " hugging": 8087,
      "hea": 8088,
      " bobby": 8089,
      "chase": 8090,
      " stunning": 8091,
      " failure": 8092,
      " chased": 8093,
      " electron": 8094,
      " sober": 8095,
      " unre": 8096,
      " average": 8097,
      " dil": 8098,
      " neut": 8099,
      "enn": 8100,
      " storage": 8101,
      "-faced": 8102,
      " trailing": 8103,
      " zone": 8104,
      " zombies": 8105,
      " ba": 8106,
      "ndy": 8107,
      " perched": 8108,
      "**les": 8109,
      " ni**les": 8110,
      " francis": 8111,
      "ertainly": 8112,
      " oppon": 8113,
      "ader": 8114,
      " testing": 8115,
      " weary": 8116,
      " ath": 8117,
      " capture": 8118,
      " demonstr": 8119,
      " cities": 8120,
      "charlie": 8121,
      " karen": 8122,
      " limit": 8123,
      "acting": 8124,
      " kel": 8125,
      "lady": 8126,
      " bump": 8127,
      ".a": 8128,
      " article": 8129,
      " heaved": 8130,
      "black": 8131,
      "ooping": 8132,
      " chinese": 8133,
      " interrog": 8134,
      "ethe": 8135,
      " creepy": 8136,
      "lucas": 8137,
      "twenty": 8138,
      "lle": 8139,
      " conver": 8140,
      " ak": 8141,
      " jap": 8142,
      "ruct": 8143,
      " andy": 8144,
      " piled": 8145,
      "garath": 8146,
      " troubled": 8147,
      " inse": 8148,
      " clinging": 8149,
      " levels": 8150,
      " chip": 8151,
      "unts": 8152,
      " cameron": 8153,
      "'he": 8154,
      "arre": 8155,
      " blunt": 8156,
      " afric": 8157,
      " disaster": 8158,
      " waiter": 8159,
      " puzzle": 8160,
      " temples": 8161,
      " haze": 8162,
      " refusing": 8163,
      "erous": 8164,
      " negoti": 8165,
      "unken": 8166,
      " eyeing": 8167,
      " irre": 8168,
      " shades": 8169,
      " deaths": 8170,
      "ourne": 8171,
      "-shaped": 8172,
      "ria": 8173,
      " sworn": 8174,
      "keeper": 8175,
      " echoing": 8176,
      "-ass": 8177,
      " dies": 8178,
      "tt": 8179,
      "aude": 8180,
      " pecul": 8181,
      " tire": 8182,
      "riger": 8183,
      " pump": 8184,
      " bunk": 8185,
      " blows": 8186,
      " drain": 8187,
      " cain": 8188,
      " studio": 8189,
      "storm": 8190,
      " kendra": 8191,
      " creek": 8192,
      " independ": 8193,
      " gregor": 8194,
      " whiskey": 8195,
      "lest": 8196,
      " tools": 8197,
      " deli": 8198,
      " jealousy": 8199,
      " shuffled": 8200,
      " tease": 8201,
      "hmm": 8202,
      " scanning": 8203,
      " sull": 8204,
      " ninet": 8205,
      "issy": 8206,
      " abandon": 8207,
      " beloved": 8208,
      " slides": 8209,
      "fight": 8210,
      "ulsion": 8211,
      " refriger": 8212,
      " worthy": 8213,
      " environ": 8214,
      "ucing": 8215,
      " destiny": 8216,
      "abs": 8217,
      " seed": 8218,
      " callum": 8219,
      " samantha": 8220,
      "making": 8221,
      " bubble": 8222,
      "fun": 8223,
      " framed": 8224,
      "vant": 8225,
      "athed": 8226,
      "getting": 8227,
      " murderer": 8228,
      " alle": 8229,
      " beasts": 8230,
      "ani": 8231,
      " taxi": 8232,
      " deer": 8233,
      " leo": 8234,
      " artist": 8235,
      " bryn": 8236,
      " remarked": 8237,
      "racting": 8238,
      "zzle": 8239,
      " praying": 8240,
      "inkling": 8241,
      " steadily": 8242,
      " emphas": 8243,
      "za": 8244,
      "-as": 8245,
      "aneously": 8246,
      " tunnels": 8247,
      " mold": 8248,
      " clip": 8249,
      "break": 8250,
      " garbage": 8251,
      " jenks": 8252,
      " reporter": 8253,
      "rus": 8254,
      " lasted": 8255,
      " hopeless": 8256,
      " charges": 8257,
      " crumpled": 8258,
      " norther": 8259,
      " dangling": 8260,
      "outhed": 8261,
      " hart": 8262,
      " infl": 8263,
      "kno": 8264,
      " recom": 8265,
      " curves": 8266,
      "sen": 8267,
      " prime": 8268,
      " inher": 8269,
      " preser": 8270,
      " pauses": 8271,
      " cares": 8272,
      " blazing": 8273,
      " generous": 8274,
      " conso": 8275,
      "olved": 8276,
      "-law": 8277,
      " amelia": 8278,
      "fear": 8279,
      " coin": 8280,
      " awak": 8281,
      "seat": 8282,
      " fortun": 8283,
      "riley": 8284,
      " stephan": 8285,
      " accused": 8286,
      "-sized": 8287,
      " tess": 8288,
      "chair": 8289,
      " insult": 8290,
      "oma": 8291,
      " aust": 8292,
      " strolled": 8293,
      " outl": 8294,
      " burden": 8295,
      " tests": 8296,
      "mitted": 8297,
      " accus": 8298,
      "-six": 8299,
      " lessons": 8300,
      " gene": 8301,
      " peculiar": 8302,
      "nge": 8303,
      " bruises": 8304,
      " offended": 8305,
      " caution": 8306,
      " motorcy": 8307,
      " recru": 8308,
      " femin": 8309,
      "oting": 8310,
      " strict": 8311,
      " centre": 8312,
      " august": 8313,
      "much": 8314,
      "finitely": 8315,
      " flare": 8316,
      "ooling": 8317,
      " oc": 8318,
      "annie": 8319,
      "ology": 8320,
      " hastily": 8321,
      "outside": 8322,
      "thought": 8323,
      "blake": 8324,
      " cats": 8325,
      " pills": 8326,
      " scal": 8327,
      " suicide": 8328,
      "ras": 8329,
      " promises": 8330,
      " choking": 8331,
      " spill": 8332,
      " awhile": 8333,
      " spike": 8334,
      " gloss": 8335,
      " picks": 8336,
      "hear": 8337,
      " injury": 8338,
      " squat": 8339,
      " assuming": 8340,
      " ster": 8341,
      " a.m.": 8342,
      " jenna": 8343,
      " partners": 8344,
      " sensual": 8345,
      " liar": 8346,
      " stove": 8347,
      "big": 8348,
      " brains": 8349,
      " japan": 8350,
      " safer": 8351,
      " passes": 8352,
      "pit": 8353,
      " walker": 8354,
      " fest": 8355,
      " online": 8356,
      " divorce": 8357,
      " aint": 8358,
      "grat": 8359,
      "entially": 8360,
      " sweaty": 8361,
      "has": 8362,
      " princip": 8363,
      "sebastian": 8364,
      " capital": 8365,
      " acceler": 8366,
      " emperor": 8367,
      " overs": 8368,
      " wisdom": 8369,
      " earl": 8370,
      " menu": 8371,
      " loyalty": 8372,
      "ooke": 8373,
      "ollo": 8374,
      "angle": 8375,
      " swell": 8376,
      "otes": 8377,
      " soil": 8378,
      " jewelry": 8379,
      "uk": 8380,
      " bearing": 8381,
      " dashed": 8382,
      " ralph": 8383,
      " guarded": 8384,
      " lyn": 8385,
      "oenix": 8386,
      " assigned": 8387,
      " stung": 8388,
      "actly": 8389,
      "gabriel": 8390,
      "rene": 8391,
      " beds": 8392,
      " pole": 8393,
      " skipped": 8394,
      "conn": 8395,
      "uge": 8396,
      "door": 8397,
      "mac": 8398,
      " selling": 8399,
      "ighed": 8400,
      " fiery": 8401,
      " bin": 8402,
      " humming": 8403,
      " shorter": 8404,
      " arrogant": 8405,
      "phil": 8406,
      " visitors": 8407,
      "glass": 8408,
      " astr": 8409,
      " caroline": 8410,
      " bor": 8411,
      " fiercely": 8412,
      " slope": 8413,
      " grandpa": 8414,
      " shrieked": 8415,
      " messy": 8416,
      "engers": 8417,
      " cookies": 8418,
      "isher": 8419,
      "ppers": 8420,
      " conqu": 8421,
      " flir": 8422,
      " yel": 8423,
      " attempts": 8424,
      " surged": 8425,
      "itional": 8426,
      "anton": 8427,
      "ienna": 8428,
      "jud": 8429,
      " toby": 8430,
      " dryly": 8431,
      " rusty": 8432,
      " bites": 8433,
      " aria": 8434,
      " ecst": 8435,
      "rr": 8436,
      " concept": 8437,
      " faintly": 8438,
      " guarant": 8439,
      " furrowed": 8440,
      "'oh": 8441,
      "elizabeth": 8442,
      " disappro": 8443,
      "unlike": 8444,
      " roots": 8445,
      " minister": 8446,
      " bella": 8447,
      "colm": 8448,
      " appet": 8449,
      " exercise": 8450,
      "ifting": 8451,
      " huddled": 8452,
      "uffed": 8453,
      "bot": 8454,
      " sucks": 8455,
      " pierced": 8456,
      " thankful": 8457,
      "dec": 8458,
      " damaged": 8459,
      " corps": 8460,
      "mes": 8461,
      "gery": 8462,
      "garion": 8463,
      "scar": 8464,
      "christian": 8465,
      " northern": 8466,
      " beep": 8467,
      " session": 8468,
      " illusion": 8469,
      "believ": 8470,
      " cargo": 8471,
      " delic": 8472,
      "ledged": 8473,
      " hunched": 8474,
      " displ": 8475,
      " fen": 8476,
      " lant": 8477,
      " wool": 8478,
      " watches": 8479,
      "luckily": 8480,
      " kinda": 8481,
      "kill": 8482,
      " rabbit": 8483,
      " fid": 8484,
      "urg": 8485,
      " mixture": 8486,
      " prompt": 8487,
      "sara": 8488,
      " histor": 8489,
      " murmur": 8490,
      " internal": 8491,
      " chips": 8492,
      "-what": 8493,
      " avery": 8494,
      " bolted": 8495,
      " awoke": 8496,
      "bits": 8497,
      "outs": 8498,
      "whether": 8499,
      " della": 8500,
      "ishop": 8501,
      " lauren": 8502,
      " sticks": 8503,
      " mage": 8504,
      " backseat": 8505,
      " philos": 8506,
      "mia": 8507,
      " valuable": 8508,
      " eagerly": 8509,
      " nicholas": 8510,
      " mant": 8511,
      " erin": 8512,
      "etan": 8513,
      " notion": 8514,
      " hawk": 8515,
      "jer": 8516,
      "alice": 8517,
      "holding": 8518,
      " strap": 8519,
      " urgent": 8520,
      " overcome": 8521,
      "jace": 8522,
      " shaped": 8523,
      " ker": 8524,
      " cara": 8525,
      "need": 8526,
      " inward": 8527,
      " trousers": 8528,
      " rapid": 8529,
      "quick": 8530,
      " razor": 8531,
      " inviting": 8532,
      " theater": 8533,
      "trent": 8534,
      " rend": 8535,
      " anch": 8536,
      "garet": 8537,
      "istent": 8538,
      " catches": 8539,
      " wander": 8540,
      " brisk": 8541,
      " rogue": 8542,
      " district": 8543,
      "ician": 8544,
      " splin": 8545,
      "ost": 8546,
      "geon": 8547,
      " slack": 8548,
      " cancer": 8549,
      " unst": 8550,
      " mitch": 8551,
      " resolve": 8552,
      " restless": 8553,
      "lily": 8554,
      " backyard": 8555,
      " exagger": 8556,
      " twitch": 8557,
      " bruised": 8558,
      " gruff": 8559,
      " speaker": 8560,
      " thud": 8561,
      "ceded": 8562,
      "joy": 8563,
      " tops": 8564,
      " rafe": 8565,
      " delay": 8566,
      " warren": 8567,
      "icia": 8568,
      "osal": 8569,
      "quarters": 8570,
      "-in-law": 8571,
      " oxy": 8572,
      " lounge": 8573,
      " shirts": 8574,
      " sandy": 8575,
      "little": 8576,
      " mast": 8577,
      "robe": 8578,
      " travell": 8579,
      "ito": 8580,
      "alls": 8581,
      " scul": 8582,
      " junior": 8583,
      " thrill": 8584,
      " sobbing": 8585,
      " spanish": 8586,
      " granted": 8587,
      " bewild": 8588,
      "tha": 8589,
      " mead": 8590,
      " sparks": 8591,
      "master": 8592,
      " workers": 8593,
      " travis": 8594,
      "gon": 8595,
      " mand": 8596,
      " fet": 8597,
      " sweating": 8598,
      " advance": 8599,
      " pictured": 8600,
      " jagged": 8601,
      " brew": 8602,
      "ursday": 8603,
      " supper": 8604,
      " schedul": 8605,
      "mur": 8606,
      " ignor": 8607,
      "leave": 8608,
      " crushing": 8609,
      " downward": 8610,
      " tune": 8611,
      " profile": 8612,
      " prophe": 8613,
      " swayed": 8614,
      " dated": 8615,
      "mie": 8616,
      "wis": 8617,
      " chem": 8618,
      " congrat": 8619,
      " freeze": 8620,
      " stilled": 8621,
      "raphs": 8622,
      " closes": 8623,
      " goose": 8624,
      "anes": 8625,
      " napkin": 8626,
      " rational": 8627,
      "born": 8628,
      " cemet": 8629,
      "acity": 8630,
      " cracking": 8631,
      " salv": 8632,
      " attacks": 8633,
      " aboard": 8634,
      " admire": 8635,
      " casting": 8636,
      " slaves": 8637,
      " winding": 8638,
      " fare": 8639,
      " cemetery": 8640,
      " hiss": 8641,
      " nonsense": 8642,
      " strapped": 8643,
      " penny": 8644,
      " circling": 8645,
      "anyone": 8646,
      " machines": 8647,
      " strain": 8648,
      " ancest": 8649,
      " tremble": 8650,
      "apor": 8651,
      " caressed": 8652,
      " mistaken": 8653,
      " biz": 8654,
      " visions": 8655,
      "indy": 8656,
      " sunset": 8657,
      " mocking": 8658,
      "chant": 8659,
      " dess": 8660,
      " miller": 8661,
      "ivy": 8662,
      " union": 8663,
      " hire": 8664,
      " presses": 8665,
      "word": 8666,
      " scalp": 8667,
      " june": 8668,
      " tracking": 8669,
      "unte": 8670,
      " pencil": 8671,
      " misty": 8672,
      "ifically": 8673,
      " oldest": 8674,
      "iffe": 8675,
      " shaken": 8676,
      "might": 8677,
      " stray": 8678,
      " sleepy": 8679,
      " whimp": 8680,
      "help": 8681,
      "forming": 8682,
      " comments": 8683,
      "lynn": 8684,
      "-we": 8685,
      "nathan": 8686,
      "load": 8687,
      "cause": 8688,
      " drunken": 8689,
      "mail": 8690,
      " swam": 8691,
      " method": 8692,
      " feast": 8693,
      " tob": 8694,
      " parano": 8695,
      "ota": 8696,
      "atis": 8697,
      " unaware": 8698,
      "'do": 8699,
      "nar": 8700,
      "fits": 8701,
      " prize": 8702,
      "clearly": 8703,
      " indian": 8704,
      " logic": 8705,
      " but-": 8706,
      " shapes": 8707,
      " teenager": 8708,
      " laundry": 8709,
      "iable": 8710,
      "reaching": 8711,
      " emerald": 8712,
      " sham": 8713,
      " zo": 8714,
      " doubts": 8715,
      "ishes": 8716,
      " savannah": 8717,
      "sitting": 8718,
      " bumped": 8719,
      "nik": 8720,
      " folk": 8721,
      ".c": 8722,
      " spells": 8723,
      " heir": 8724,
      "brand": 8725,
      "oken": 8726,
      "stan": 8727,
      " tool": 8728,
      "jax": 8729,
      " unp": 8730,
      "west": 8731,
      " print": 8732,
      "imeter": 8733,
      " junk": 8734,
      " males": 8735,
      " fantas": 8736,
      "aver": 8737,
      " starving": 8738,
      " goin": 8739,
      " prepar": 8740,
      " france": 8741,
      " bom": 8742,
      " whimper": 8743,
      "berg": 8744,
      " cri": 8745,
      "usk": 8746,
      "-ch": 8747,
      "agan": 8748,
      "nesday": 8749,
      " multiple": 8750,
      " scooped": 8751,
      " scenar": 8752,
      " illegal": 8753,
      "'but": 8754,
      " sales": 8755,
      " kneeling": 8756,
      " returns": 8757,
      " parker": 8758,
      " greek": 8759,
      " elise": 8760,
      "cies": 8761,
      "usually": 8762,
      "umbles": 8763,
      " reacted": 8764,
      " stephen": 8765,
      " folds": 8766,
      " retrieve": 8767,
      "dson": 8768,
      " brun": 8769,
      " obst": 8770,
      " relent": 8771,
      " dresses": 8772,
      " handled": 8773,
      " copper": 8774,
      " sacred": 8775,
      " wrath": 8776,
      " sprawled": 8777,
      "azar": 8778,
      "ups": 8779,
      " combined": 8780,
      "agues": 8781,
      " emplo": 8782,
      " meetings": 8783,
      "otherwise": 8784,
      " citizens": 8785,
      " talks": 8786,
      " budd": 8787,
      " clerk": 8788,
      " absently": 8789,
      "ianc": 8790,
      " packing": 8791,
      "flies": 8792,
      " buzzed": 8793,
      "ulting": 8794,
      " secured": 8795,
      " drivers": 8796,
      " carn": 8797,
      " scarf": 8798,
      " tended": 8799,
      " unhappy": 8800,
      " gust": 8801,
      " denied": 8802,
      " pel": 8803,
      " reserved": 8804,
      "-if": 8805,
      " filthy": 8806,
      " sympat": 8807,
      " cringed": 8808,
      " ruff": 8809,
      " tommy": 8810,
      " boats": 8811,
      "angel": 8812,
      " pursed": 8813,
      "aser": 8814,
      "uty": 8815,
      " aggress": 8816,
      " cudd": 8817,
      " ropes": 8818,
      "open": 8819,
      " infect": 8820,
      "lands": 8821,
      " extraord": 8822,
      " recip": 8823,
      " neil": 8824,
      "ountered": 8825,
      " buzzing": 8826,
      "unching": 8827,
      " indul": 8828,
      "zzie": 8829,
      " bending": 8830,
      " yer": 8831,
      " scoffed": 8832,
      " rounds": 8833,
      " dazed": 8834,
      " guts": 8835,
      "jane": 8836,
      "around": 8837,
      "ican": 8838,
      " lurched": 8839,
      " initi": 8840,
      " nicole": 8841,
      " twir": 8842,
      "iza": 8843,
      "bris": 8844,
      " demands": 8845,
      "ustomed": 8846,
      " objects": 8847,
      "cont": 8848,
      "ril": 8849,
      " whistle": 8850,
      "rical": 8851,
      "eel": 8852,
      " helpful": 8853,
      " izzy": 8854,
      " navig": 8855,
      " slung": 8856,
      " portion": 8857,
      " bac": 8858,
      " jasmine": 8859,
      " duties": 8860,
      " motel": 8861,
      " variety": 8862,
      "normally": 8863,
      "interest": 8864,
      " arrows": 8865,
      "rigg": 8866,
      " canvas": 8867,
      " neutral": 8868,
      " hanna": 8869,
      "usions": 8870,
      "pher": 8871,
      "'l": 8872,
      " lexi": 8873,
      "illip": 8874,
      " bern": 8875,
      " jonas": 8876,
      " repair": 8877,
      " unlikely": 8878,
      " fountain": 8879,
      " charity": 8880,
      " folding": 8881,
      "esy": 8882,
      " zack": 8883,
      "reet": 8884,
      "-o": 8885,
      " pix": 8886,
      "shield": 8887,
      "inded": 8888,
      " identify": 8889,
      " lecture": 8890,
      "dri": 8891,
      "eddie": 8892,
      " undead": 8893,
      " concerns": 8894,
      "according": 8895,
      " rumbled": 8896,
      " altar": 8897,
      "seriously": 8898,
      " ally": 8899,
      "annon": 8900,
      " summoned": 8901,
      " monica": 8902,
      " focusing": 8903,
      " sche": 8904,
      " hopeful": 8905,
      " volunte": 8906,
      "kal": 8907,
      " ushe": 8908,
      " genius": 8909,
      "quet": 8910,
      " upside": 8911,
      " strings": 8912,
      " cowboy": 8913,
      "ancesca": 8914,
      "sued": 8915,
      " surviv": 8916,
      " ruby": 8917,
      "care": 8918,
      " sobs": 8919,
      " sock": 8920,
      "phew": 8921,
      " basis": 8922,
      " females": 8923,
      " trey": 8924,
      " outst": 8925,
      "wa": 8926,
      " senator": 8927,
      " freely": 8928,
      " lovers": 8929,
      "kell": 8930,
      "vest": 8931,
      " bizarre": 8932,
      " solve": 8933,
      "fly": 8934,
      " tipto": 8935,
      " scrap": 8936,
      "inkle": 8937,
      "iffany": 8938,
      " marshall": 8939,
      " grie": 8940,
      " u.": 8941,
      "ae": 8942,
      " stomped": 8943,
      " grunt": 8944,
      " eden": 8945,
      "hou": 8946,
      " resisted": 8947,
      " colon": 8948,
      " largest": 8949,
      " bou": 8950,
      " winds": 8951,
      "pulling": 8952,
      " brighter": 8953,
      " particip": 8954,
      " proudly": 8955,
      " sly": 8956,
      " dign": 8957,
      " examine": 8958,
      " tires": 8959,
      " pudd": 8960,
      " void": 8961,
      " oxygen": 8962,
      " compar": 8963,
      " vigor": 8964,
      " silky": 8965,
      "ivity": 8966,
      " adults": 8967,
      " rats": 8968,
      " china": 8969,
      " fitting": 8970,
      "wed": 8971,
      " piano": 8972,
      " bedside": 8973,
      " maxim": 8974,
      " liking": 8975,
      " phoenix": 8976,
      " score": 8977,
      " graham": 8978,
      " attorney": 8979,
      " flaw": 8980,
      "eez": 8981,
      " stench": 8982,
      " blasted": 8983,
      " calmed": 8984,
      " scholar": 8985,
      " heck": 8986,
      " stance": 8987,
      " fluid": 8988,
      " delivery": 8989,
      " venge": 8990,
      " seventy": 8991,
      " reminds": 8992,
      " punct": 8993,
      " reject": 8994,
      " dome": 8995,
      "oles": 8996,
      " avenue": 8997,
      " cherry": 8998,
      "bey": 8999,
      " cracks": 9000,
      " exquis": 9001,
      " raises": 9002,
      " rug": 9003,
      " index": 9004,
      " punish": 9005,
      " removing": 9006,
      " betrayal": 9007,
      " gravity": 9008,
      " linked": 9009,
      "alia": 9010,
      " romance": 9011,
      " robot": 9012,
      " locking": 9013,
      " brass": 9014,
      "grees": 9015,
      " brady": 9016,
      " strongly": 9017,
      " shack": 9018,
      "domen": 9019,
      " blinding": 9020,
      "brian": 9021,
      " systems": 9022,
      "cts": 9023,
      "ending": 9024,
      " heavens": 9025,
      "-they": 9026,
      " shine": 9027,
      " cane": 9028,
      " strand": 9029,
      " contrast": 9030,
      " gaping": 9031,
      " tanner": 9032,
      " fiction": 9033,
      " depos": 9034,
      " scraped": 9035,
      " pod": 9036,
      "surpr": 9037,
      " stormed": 9038,
      "fact": 9039,
      " sticky": 9040,
      " midst": 9041,
      " robin": 9042,
      " dele": 9043,
      " laurence": 9044,
      " arthur": 9045,
      " welcom": 9046,
      " one-": 9047,
      " stays": 9048,
      " mused": 9049,
      " shifts": 9050,
      " tribe": 9051,
      " scree": 9052,
      " inex": 9053,
      " gulped": 9054,
      " feathers": 9055,
      " sher": 9056,
      " offers": 9057,
      " item": 9058,
      " leah": 9059,
      " puppy": 9060,
      " battered": 9061,
      "nec": 9062,
      " ledge": 9063,
      " flashes": 9064,
      " choke": 9065,
      " georg": 9066,
      "topher": 9067,
      " degrees": 9068,
      " glorious": 9069,
      " lowering": 9070,
      " disturb": 9071,
      " ]": 9072,
      " dna": 9073,
      "enzie": 9074,
      "somewhere": 9075,
      " /": 9076,
      " players": 9077,
      " column": 9078,
      " diner": 9079,
      " dialed": 9080,
      " deciding": 9081,
      " pumping": 9082,
      " aspect": 9083,
      " feminine": 9084,
      " gallery": 9085,
      " salad": 9086,
      " fumbled": 9087,
      " pend": 9088,
      " amid": 9089,
      "ulously": 9090,
      " econ": 9091,
      "-seven": 9092,
      " infected": 9093,
      "iso": 9094,
      "george": 9095,
      " pu**": 9096,
      " skept": 9097,
      " jumps": 9098,
      " cautious": 9099,
      " pu**y": 9100,
      "igan": 9101,
      "clay": 9102,
      " offices": 9103,
      " immense": 9104,
      " coven": 9105,
      " dates": 9106,
      " peeled": 9107,
      " preston": 9108,
      "sell": 9109,
      " sage": 9110,
      " mae": 9111,
      "augh": 9112,
      " laced": 9113,
      " follows": 9114,
      "caleb": 9115,
      " highest": 9116,
      " collapse": 9117,
      " sunk": 9118,
      " edged": 9119,
      " shutting": 9120,
      " eva": 9121,
      "alt": 9122,
      "amble": 9123,
      " flipping": 9124,
      " depend": 9125,
      " joint": 9126,
      "arming": 9127,
      " rumble": 9128,
      " axe": 9129,
      "loc": 9130,
      "liness": 9131,
      " bacon": 9132,
      " beamed": 9133,
      " blessed": 9134,
      " alter": 9135,
      " thursday": 9136,
      " sup": 9137,
      "-all": 9138,
      " gaped": 9139,
      "rielle": 9140,
      " sum": 9141,
      "lend": 9142,
      "between": 9143,
      " absurd": 9144,
      " dramatic": 9145,
      " madame": 9146,
      "thinking": 9147,
      " monk": 9148,
      "ouched": 9149,
      " cade": 9150,
      " creeping": 9151,
      " taut": 9152,
      " fiona": 9153,
      " root": 9154,
      "iac": 9155,
      " offense": 9156,
      " isabella": 9157,
      " toll": 9158,
      "ummy": 9159,
      " happier": 9160,
      " pub": 9161,
      " husky": 9162,
      " kitten": 9163,
      "rend": 9164,
      " cyn": 9165,
      "este": 9166,
      " melody": 9167,
      "ala": 9168,
      " chewing": 9169,
      " stirring": 9170,
      "gently": 9171,
      " peek": 9172,
      " josie": 9173,
      " trucks": 9174,
      " giggling": 9175,
      " drowned": 9176,
      " tales": 9177,
      " logical": 9178,
      "-covered": 9179,
      " patients": 9180,
      "others": 9181,
      " stacked": 9182,
      " arriving": 9183,
      " ego": 9184,
      " vote": 9185,
      " upd": 9186,
      "exc": 9187,
      " tones": 9188,
      " orle": 9189,
      " obey": 9190,
      " eastern": 9191,
      " traitor": 9192,
      " eerie": 9193,
      "moon": 9194,
      " bren": 9195,
      " drowning": 9196,
      " tut": 9197,
      " rebecca": 9198,
      "perfect": 9199,
      " reed": 9200,
      " rank": 9201,
      " dominic": 9202,
      "prot": 9203,
      " league": 9204,
      " goo": 9205,
      " knob": 9206,
      " agency": 9207,
      " pained": 9208,
      " thump": 9209,
      "rik": 9210,
      " saun": 9211,
      " dripped": 9212,
      " nephew": 9213,
      "igail": 9214,
      " blurred": 9215,
      " sust": 9216,
      " crest": 9217,
      " prompted": 9218,
      " hates": 9219,
      "din": 9220,
      "esday": 9221,
      " scarce": 9222,
      " halls": 9223,
      "akable": 9224,
      " thresh": 9225,
      " pac": 9226,
      " outrage": 9227,
      " applied": 9228,
      "orse": 9229,
      "adel": 9230,
      "smo": 9231,
      " condom": 9232,
      " unco": 9233,
      "elly": 9234,
      " weakly": 9235,
      " phones": 9236,
      " sarcasm": 9237,
      " uncont": 9238,
      " arousal": 9239,
      " achieve": 9240,
      " seduct": 9241,
      " document": 9242,
      " teachers": 9243,
      " stride": 9244,
      " tissue": 9245,
      "nold": 9246,
      " tripped": 9247,
      "inent": 9248,
      " cue": 9249,
      " ford": 9250,
      "foll": 9251,
      " thorn": 9252,
      " stain": 9253,
      " meantime": 9254,
      " dollar": 9255,
      " withdraw": 9256,
      "yers": 9257,
      " virus": 9258,
      "maggie": 9259,
      " jase": 9260,
      "dia": 9261,
      "anks": 9262,
      " mascul": 9263,
      " cousins": 9264,
      " heap": 9265,
      " tuesday": 9266,
      " huffed": 9267,
      " resent": 9268,
      "cour": 9269,
      " wag": 9270,
      " owners": 9271,
      " spaces": 9272,
      " stil": 9273,
      " elderly": 9274,
[...]
